<pad> 0
</s> 1
<unk> 2
▁ 3
X 4
. 5
, 6
s 7
▁the 8
a 9
: 10
▁and 11
▁to 12
▁of 13
▁fill 14
e 15
▁in 16
t 17
- 18
▁is 19
▁de 20
▁for 21
’ 22
i 23
▁that 24
▁you 25
d 26
▁I 27
▁with 28
n 29
▁on 30
' 31
o 32
▁are 33
▁it 34
en 35
▁be 36
▁The 37
▁as 38
▁your 39
l 40
▁( 41
▁or 42
▁have 43
▁at 44
▁from 45
▁an 46
▁was 47
▁this 48
er 49
▁la 50
m 51
r 52
ing 53
▁can 54
! 55
▁will 56
▁by 57
? 58
▁not 59
re 60
) 61
▁we 62
y 63
▁und 64
▁has 65
▁all 66
▁die 67
▁but 68
▁our 69
▁their 70
▁A 71
▁more 72
▁un 73
▁der 74
c 75
u 76
in 77
▁so 78
▁they 79
▁one 80
▁about 81
▁my 82
ul 83
▁which 84
à 85
▁In 86
/ 87
he 88
f 89
▁le 90
▁out 91
▁also 92
▁des 93
▁It 94
▁up 95
▁" 96
▁time 97
ă 98
if 99
▁This 100
▁We 101
p 102
▁do 103
– 104
▁“ 105
on 106
h 107
▁si 108
le 109
▁les 110
▁în 111
▁his 112
▁who 113
▁like 114
b 115
▁when 116
; 117
▁been 118
▁other 119
ly 120
" 121
g 122
▁cu 123
▁care 124
▁what 125
▁new 126
or 127
▁some 128
▁get 129
▁were 130
▁just 131
▁there 132
▁would 133
S 134
▁them 135
▁any 136
). 137
al 138
▁into 139
▁me 140
▁had 141
▁se 142
▁make 143
at 144
▁than 145
▁du 146
▁over 147
▁You 148
▁how 149
▁no 150
▁people 151
an 152
” 153
é 154
it 155
▁If 156
k 157
▁pe 158
is 159
▁her 160
▁work 161
ve 162
▁only 163
▁may 164
▁its 165
▁first 166
▁most 167
▁well 168
▁use 169
▁zu 170
▁pour 171
z 172
il 173
▁need 174
▁these 175
▁din 176
▁den 177
▁us 178
able 179
▁S 180
▁mit 181
▁very 182
▁am 183
& 184
▁au 185
▁many 186
▁mai 187
A 188
th 189
▁through 190
▁pentru 191
▁two 192
▁von 193
▁way 194
ll 195
I 196
▁ce 197
▁și 198
▁help 199
▁best 200
), 201
un 202
▁years 203
▁2 204
▁C 205
▁nu 206
▁good 207
v 208
▁1 209
w 210
▁das 211
▁ca 212
▁where 213
▁know 214
▁year 215
▁He 216
▁see 217
▁für 218
▁auf 219
▁3 220
de 221
est 222
▁back 223
▁such 224
▁should 225
x 226
▁after 227
▁could 228
▁ist 229
▁now 230
▁much 231
and 232
... 233
▁home 234
to 235
▁ein 236
▁even 237
▁que 238
▁day 239
▁take 240
▁want 241
▁For 242
▁said 243
▁sur 244
▁une 245
▁să 246
▁dans 247
▁great 248
▁este 249
▁because 250
▁information 251
ului 252
▁find 253
C 254
▁she 255
▁im 256
ation 257
▁then 258
▁est 259
▁par 260
▁used 261
▁E 262
▁made 263
▁So 264
am 265
▁eine 266
▁şi 267
▁business 268
▁right 269
▁here 270
▁being 271
▁B 272
▁those 273
▁before 274
▁And 275
▁P 276
ers 277
▁don 278
B 279
▁life 280
▁go 281
▁As 282
▁M 283
▁each 284
▁qui 285
▁place 286
com 287
ant 288
▁sich 289
▁There 290
ar 291
▁Sie 292
▁own 293
▁part 294
ent 295
▁world 296
ment 297
▁while 298
▁But 299
▁around 300
▁L 301
us 302
▁plus 303
▁To 304
▁5 305
▁high 306
▁long 307
D 308
▁D 309
▁really 310
▁nicht 311
▁Le 312
▁service 313
▁4 314
▁different 315
▁Die 316
▁think 317
— 318
▁auch 319
▁look 320
▁both 321
lor 322
▁down 323
ten 324
▁La 325
▁off 326
▁vous 327
▁They 328
M 329
▁pas 330
▁data 331
▁T 332
▁love 333
▁every 334
▁10 335
▁last 336
▁same 337
▁using 338
▁free 339
▁dem 340
▁still 341
ate 342
ist 343
▁between 344
P 345
be 346
▁available 347
man 348
▁company 349
▁G 350
▁experience 351
▁going 352
▁site 353
j 354
are 355
▁set 356
2 357
▁system 358
▁important 359
▁few 360
▁fi 361
ich 362
▁What 363
▁services 364
▁under 365
▁When 366
▁online 367
▁New 368
▁come 369
▁provide 370
F 371
▁team 372
▁always 373
▁De 374
▁că 375
▁him 376
▁F 377
▁things 378
▁including 379
▁support 380
▁number 381
T 382
▁during 383
▁family 384
▁little 385
▁three 386
▁water 387
▁man 388
▁An 389
based 390
▁R 391
▁sau 392
▁avec 393
▁better 394
▁„ 395
▁too 396
ge 397
▁must 398
▁per 399
ele 400
▁oder 401
au 402
▁aus 403
▁werden 404
▁does 405
▁without 406
▁ou 407
▁design 408
▁va 409
▁did 410
▁O 411
▁U 412
up 413
▁end 414
▁local 415
▁next 416
▁sure 417
▁lot 418
▁Re 419
▁top 420
▁Our 421
▁small 422
▁full 423
▁something 424
ung 425
▁vor 426
E 427
▁give 428
▁might 429
▁another 430
▁6 431
▁All 432
▁process 433
L 434
▁found 435
▁sind 436
▁since 437
▁With 438
K 439
um 440
▁within 441
▁post 442
▁car 443
une 444
▁N 445
▁J 446
ic 447
R 448
ter 449
ur 450
▁She 451
▁public 452
▁keep 453
▁H 454
▁order 455
▁start 456
ez 457
▁‘ 458
uri 459
▁20 460
▁On 461
▁offer 462
▁quality 463
▁working 464
▁No 465
▁That 466
▁game 467
▁bei 468
▁today 469
▁never 470
▁week 471
▁St 472
▁feel 473
▁put 474
▁website 475
Y 476
▁days 477
▁program 478
▁looking 479
▁K 480
▁students 481
▁create 482
▁change 483
▁book 484
ity 485
▁At 486
▁possible 487
▁sunt 488
▁7 489
▁real 490
▁al 491
▁making 492
▁Be 493
▁products 494
▁case 495
▁school 496
▁say 497
area 498
▁My 499
▁point 500
▁als 501
▁children 502
▁course 503
▁show 504
▁8 505
▁These 506
▁18 507
▁large 508
co 509
▁über 510
▁second 511
▁market 512
▁fost 513
▁easy 514
▁plan 515
▁project 516
G 517
W 518
3 519
▁son 520
la 521
▁face 522
▁needs 523
ch 524
▁personal 525
me 526
▁sont 527
▁je 528
▁non 529
▁got 530
▁Do 531
the 532
▁health 533
▁special 534
." 535
1 536
den 537
▁state 538
▁open 539
▁money 540
▁again 541
▁food 542
▁page 543
▁together 544
age 545
▁qu 546
hat 547
▁ver 548
▁W 549
▁away 550
▁wird 551
▁until 552
V 553
▁pre 554
▁One 555
▁product 556
▁often 557
▁wir 558
▁nach 559
▁include 560
▁um 561
▁room 562
▁group 563
▁name 564
ce 565
H 566
N 567
▁person 568
▁social 569
▁list 570
▁How 571
▁why 572
▁community 573
▁contact 574
­ 575
▁co 576
▁play 577
▁having 578
▁power 579
▁call 580
▁against 581
▁become 582
▁cost 583
▁V 584
▁research 585
▁12 586
▁wie 587
der 588
▁thing 589
▁along 590
4 591
▁access 592
▁level 593
▁price 594
▁einen 595
▁side 596
▁Un 597
▁means 598
( 599
▁big 600
▁God 601
▁dass 602
im 603
▁30 604
▁event 605
▁development 606
▁form 607
▁read 608
▁hand 609
▁control 610
▁However 611
▁done 612
▁job 613
▁hard 614
▁war 615
▁area 616
▁add 617
▁votre 618
▁live 619
▁range 620
▁After 621
▁Les 622
▁far 623
ver 624
▁old 625
▁perfect 626
▁15 627
▁space 628
▁house 629
ine 630
▁enough 631
0 632
▁several 633
The 634
mm 635
▁University 636
▁diese 637
▁Co 638
▁comes 639
▁across 640
▁already 641
,” 642
▁body 643
▁Das 644
▁einer 645
▁left 646
▁future 647
▁times 648
▁dar 649
▁simple 650
ry 651
▁getting 652
▁try 653
ți 654
ness 655
▁makes 656
▁past 657
ca 658
▁light 659
▁Der 660
▁run 661
▁four 662
ance 663
▁ever 664
▁einem 665
▁below 666
O 667
▁9 668
▁learn 669
out 670
▁video 671
▁etc 672
▁« 673
▁zum 674
▁kann 675
▁minutes 676
▁example 677
▁nous 678
▁Se 679
▁sie 680
▁industry 681
▁problem 682
J 683
▁country 684
▁fact 685
▁type 686
ner 687
▁companies 688
▁line 689
▁city 690
▁check 691
▁doing 692
elle 693
▁fun 694
▁En 695
▁Your 696
ling 697
▁share 698
ile 699
▁actually 700
▁value 701
zi 702
▁ab 703
▁offers 704
▁less 705
▁night 706
▁Dr 707
▁started 708
▁least 709
▁short 710
▁main 711
▁single 712
▁though 713
▁prin 714
time 715
▁hours 716
▁others 717
▁called 718
▁visit 719
▁bit 720
ée 721
▁customers 722
▁music 723
▁members 724
ies 725
▁pay 726
nd 727
▁once 728
gen 729
▁können 730
▁low 731
▁durch 732
▁story 733
▁understand 734
“ 735
▁Am 736
▁didn 737
▁content 738
son 739
▁building 740
▁result 741
▁aux 742
▁complete 743
▁doesn 744
▁haben 745
▁questions 746
line 747
▁technology 748
▁Pro 749
▁current 750
▁won 751
▁let 752
▁features 753
▁please 754
5 755
▁above 756
ive 757
▁management 758
▁lui 759
her 760
▁training 761
▁everything 762
▁noch 763
▁came 764
▁web 765
▁ensure 766
▁months 767
▁art 768
▁sub 769
▁million 770
▁professional 771
▁results 772
▁kind 773
▁season 774
▁unique 775
ze 776
▁enjoy 777
▁early 778
▁major 779
▁yet 780
▁Ver 781
one 782
▁media 783
▁[ 784
▁property 785
▁beautiful 786
▁given 787
▁due 788
▁government 789
▁nur 790
▁email 791
▁total 792
▁natural 793
▁test 794
▁provides 795
▁various 796
▁American 797
▁moment 798
▁air 799
▁idea 800
▁known 801
▁Il 802
▁friends 803
▁final 804
▁buy 805
▁specific 806
▁issues 807
▁took 808
▁mind 809
▁study 810
▁addition 811
▁size 812
▁pro 813
▁film 814
▁pot 815
▁thought 816
▁tell 817
▁While 818
▁head 819
▁clients 820
▁performance 821
▁question 822
▁whether 823
▁certain 824
▁model 825
▁following 826
▁energy 827
▁office 828
▁whole 829
▁bring 830
▁required 831
ţi 832
▁date 833
_ 834
que 835
▁da 836
▁US 837
▁taking 838
go 839
▁living 840
▁someone 841
▁heart 842
▁key 843
▁areas 844
▁says 845
▁2018 846
▁month 847
▁Er 848
ste 849
▁11 850
▁front 851
▁Now 852
▁class 853
▁choose 854
pe 855
▁further 856
▁believe 857
of 858
▁among 859
sch 860
▁child 861
▁aber 862
▁Please 863
rea 864
▁later 865
▁amount 866
ice 867
▁National 868
▁style 869
▁tout 870
▁staff 871
▁white 872
▁ge 873
▁five 874
▁blog 875
▁designed 876
▁went 877
▁Da 878
▁general 879
▁rest 880
▁zur 881
▁quite 882
per 883
▁customer 884
▁close 885
▁Some 886
▁women 887
▁move 888
▁software 889
▁Ein 890
▁Ab 891
▁history 892
▁either 893
▁seen 894
▁card 895
▁City 896
▁hope 897
▁16 898
és 899
va 900
▁Al 901
▁especially 902
▁view 903
men 904
▁account 905
▁needed 906
▁United 907
] 908
▁yourself 909
▁100 910
▁receive 911
▁ideas 912
▁writing 913
▁simply 914
▁present 915
▁continue 916
▁application 917
▁build 918
▁turn 919
ated 920
▁everyone 921
cette 922
▁bien 923
less 924
▁Si 925
▁original 926
8 927
▁individual 928
tre 929
▁works 930
▁options 931
▁May 932
▁Not 933
▁report 934
mer 935
▁human 936
▁provided 937
▁By 938
▁series 939
7 940
▁modern 941
▁meet 942
▁50 943
▁25 944
▁color 945
▁download 946
▁Here 947
6 948
▁poate 949
▁În 950
▁phone 951
▁likely 952
▁table 953
▁ma 954
▁Or 955
Z 956
▁19 957
▁insurance 958
▁anything 959
▁search 960
▁Ge 961
▁issue 962
▁includes 963
▁clear 964
les 965
▁almost 966
ilor 967
▁14 968
by 969
▁Du 970
▁mais 971
ier 972
▁law 973
▁added 974
▁con 975
," 976
▁ago 977
▁His 978
▁points 979
▁mult 980
▁financial 981
▁problems 982
▁however 983
▁events 984
▁half 985
ard 986
▁ask 987
▁version 988
end 989
▁created 990
▁lead 991
▁focus 992
▁increase 993
ex 994
▁allow 995
▁extra 996
▁24 997
▁credit 998
▁production 999
zu 1000
▁black 1001
▁systems 1002
▁17 1003
▁opportunity 1004
▁bis 1005
▁fast 1006
ring 1007
▁Don 1008
▁via 1009
fer 1010
▁comme 1011
▁popular 1012
▁South 1013
ating 1014
▁State 1015
ator 1016
▁common 1017
con 1018
▁throughout 1019
▁risk 1020
▁young 1021
▁Je 1022
▁image 1023
ha 1024
▁third 1025
▁taken 1026
▁Z 1027
▁dis 1028
▁From 1029
▁details 1030
▁games 1031
▁practice 1032
che 1033
▁security 1034
▁medical 1035
▁learning 1036
▁material 1037
▁international 1038
▁forward 1039
▁paper 1040
▁action 1041
▁file 1042
▁oil 1043
▁self 1044
▁private 1045
▁interest 1046
bar 1047
▁sale 1048
▁stay 1049
ke 1050
▁San 1051
▁matter 1052
▁reason 1053
ted 1054
▁potential 1055
▁brand 1056
▁field 1057
▁treatment 1058
▁period 1059
▁York 1060
▁Park 1061
▁acest 1062
ou 1063
▁Ce 1064
▁ready 1065
▁rather 1066
▁outside 1067
▁standard 1068
▁located 1069
▁marketing 1070
cu 1071
▁Can 1072
▁education 1073
use 1074
▁role 1075
▁men 1076
▁probably 1077
▁store 1078
▁John 1079
▁rate 1080
▁code 1081
▁kids 1082
▁currently 1083
▁near 1084
▁sales 1085
▁usually 1086
▁activities 1087
▁party 1088
▁leur 1089
▁particular 1090
▁mehr 1091
ill 1092
▁percent 1093
▁fait 1094
▁happy 1095
▁inside 1096
▁save 1097
▁skills 1098
▁consider 1099
▁recent 1100
▁strong 1101
▁position 1102
▁knowledge 1103
▁tax 1104
▁users 1105
und 1106
▁coming 1107
▁article 1108
min 1109
▁sein 1110
▁travel 1111
▁changes 1112
▁impact 1113
▁wanted 1114
▁address 1115
▁soon 1116
▁North 1117
ată 1118
▁trying 1119
▁app 1120
▁School 1121
▁Es 1122
we 1123
▁conditions 1124
▁digital 1125
▁similar 1126
▁solution 1127
▁location 1128
▁Of 1129
▁follow 1130
▁red 1131
▁review 1132
▁skin 1133
▁pretty 1134
day 1135
▁dé 1136
▁cause 1137
▁Sa 1138
▁user 1139
▁Man 1140
”. 1141
▁Just 1142
▁faire 1143
▁member 1144
▁iar 1145
▁higher 1146
▁step 1147
▁wide 1148
▁uns 1149
▁World 1150
▁additional 1151
ber 1152
▁easily 1153
▁deal 1154
▁ways 1155
▁mobile 1156
▁national 1157
▁couple 1158
▁ihre 1159
▁choice 1160
for 1161
ous 1162
▁Google 1163
▁environment 1164
urile 1165
▁Center 1166
mp 1167
▁» 1168
qui 1169
▁growth 1170
ler 1171
▁improve 1172
▁items 1173
▁Nu 1174
▁leave 1175
▁true 1176
▁wurde 1177
▁cannot 1178
▁13 1179
▁running 1180
▁anti 1181
▁option 1182
▁reading 1183
▁Car 1184
▁Wir 1185
▁April 1186
▁behind 1187
▁client 1188
▁cover 1189
▁stop 1190
ja 1191
▁built 1192
▁Con 1193
ement 1194
▁projects 1195
▁variety 1196
▁Ihre 1197
ș 1198
▁unter 1199
▁longer 1200
year 1201
▁photo 1202
▁Also 1203
▁received 1204
▁return 1205
00 1206
▁bar 1207
ary 1208
elor 1209
▁Home 1210
our 1211
▁Me 1212
▁held 1213
▁click 1214
▁ex 1215
▁cum 1216
▁takes 1217
▁computer 1218
▁told 1219
+ 1220
▁patients 1221
ting 1222
▁direct 1223
▁quickly 1224
tic 1225
▁vom 1226
▁di 1227
▁kitchen 1228
▁network 1229
▁2015 1230
▁effective 1231
▁collection 1232
▁2017 1233
▁words 1234
▁cele 1235
▁student 1236
▁amazing 1237
eur 1238
.” 1239
▁ale 1240
”, 1241
▁purchase 1242
▁mean 1243
▁West 1244
▁nice 1245
▁age 1246
▁base 1247
▁summer 1248
▁multi 1249
▁allows 1250
▁latest 1251
▁global 1252
▁chance 1253
▁sense 1254
ieren 1255
▁difficult 1256
ité 1257
ka 1258
du 1259
▁providing 1260
▁Art 1261
▁drive 1262
▁Go 1263
▁très 1264
U 1265
▁Pre 1266
▁shows 1267
▁hair 1268
▁success 1269
▁UK 1270
red 1271
ü 1272
ish 1273
▁weeks 1274
▁solutions 1275
▁Pe 1276
▁equipment 1277
și 1278
▁worked 1279
". 1280
▁legal 1281
▁bad 1282
▁40 1283
▁Internet 1284
▁included 1285
▁upon 1286
▁excellent 1287
▁goal 1288
▁El 1289
▁Mo 1290
▁policy 1291
▁aussi 1292
▁weight 1293
ici 1294
▁approach 1295
▁six 1296
▁entire 1297
9 1298
▁send 1299
▁1. 1300
▁wenn 1301
▁photos 1302
:// 1303
ger 1304
▁favorite 1305
ley 1306
▁else 1307
▁types 1308
▁link 1309
▁recently 1310
▁Mit 1311
▁hot 1312
tra 1313
ş 1314
▁according 1315
▁necessary 1316
▁multiple 1317
▁Im 1318
▁sehr 1319
▁sign 1320
▁anyone 1321
▁land 1322
▁States 1323
▁unsere 1324
ées 1325
We 1326
▁nothing 1327
▁commercial 1328
ful 1329
▁seems 1330
▁International 1331
▁March 1332
▁Thanks 1333
▁County 1334
▁books 1335
▁Ca 1336
▁mi 1337
▁meeting 1338
▁tools 1339
▁cut 1340
▁related 1341
▁lives 1342
way 1343
▁develop 1344
▁sound 1345
▁safe 1346
▁Her 1347
▁average 1348
▁clean 1349
▁talk 1350
▁peut 1351
▁dann 1352
▁terms 1353
▁foarte 1354
▁super 1355
▁programs 1356
▁decision 1357
▁costs 1358
▁être 1359
▁2019 1360
led 1361
▁parents 1362
▁Mr 1363
▁lower 1364
▁door 1365
▁été 1366
▁box 1367
▁record 1368
▁win 1369
ster 1370
▁America 1371
▁immer 1372
▁road 1373
▁leading 1374
▁section 1375
▁Facebook 1376
▁Most 1377
iert 1378
▁morning 1379
▁asked 1380
▁involved 1381
▁hier 1382
▁images 1383
▁House 1384
▁highly 1385
▁Bar 1386
▁Service 1387
▁attention 1388
▁normal 1389
▁plans 1390
▁source 1391
▁Aus 1392
▁benefits 1393
▁ses 1394
des 1395
▁internet 1396
▁materials 1397
▁même 1398
▁fine 1399
▁fit 1400
▁21 1401
▁itself 1402
▁wieder 1403
▁Many 1404
▁nature 1405
▁pain 1406
▁device 1407
art 1408
pro 1409
▁France 1410
lich 1411
▁2014 1412
▁inter 1413
▁Li 1414
▁career 1415
▁looks 1416
▁ré 1417
▁ability 1418
▁situation 1419
ville 1420
▁2016 1421
tes 1422
▁remember 1423
▁TV 1424
▁levels 1425
▁subject 1426
ally 1427
▁reduce 1428
▁* 1429
▁Day 1430
▁write 1431
▁pick 1432
ence 1433
▁fresh 1434
▁traditional 1435
chi 1436
▁machine 1437
▁resources 1438
â 1439
▁countries 1440
▁Even 1441
▁green 1442
▁Free 1443
▁daily 1444
▁respect 1445
▁instead 1446
▁Once 1447
▁word 1448
▁construction 1449
▁huge 1450
▁feature 1451
▁themselves 1452
▁loss 1453
% 1454
▁safety 1455
▁economic 1456
▁require 1457
30 1458
▁planning 1459
▁mal 1460
▁directly 1461
ure 1462
▁track 1463
▁tool 1464
▁positive 1465
▁piece 1466
▁parts 1467
ang 1468
▁trip 1469
▁organization 1470
▁sites 1471
▁fire 1472
▁China 1473
▁Pour 1474
▁plant 1475
▁board 1476
▁interesting 1477
gar 1478
▁fie 1479
▁late 1480
▁wall 1481
▁walk 1482
ham 1483
▁Ne 1484
▁First 1485
▁double 1486
▁budget 1487
▁cases 1488
cal 1489
old 1490
▁Bo 1491
▁spend 1492
port 1493
▁worth 1494
ique 1495
nes 1496
cul 1497
era 1498
▁text 1499
▁decided 1500
▁floor 1501
▁requirements 1502
▁cel 1503
▁effect 1504
▁gibt 1505
▁news 1506
▁vos 1507
▁players 1508
▁saw 1509
▁auto 1510
▁town 1511
▁myself 1512
▁lost 1513
▁$ 1514
▁June 1515
▁significant 1516
▁giving 1517
▁stand 1518
▁stock 1519
▁hold 1520
▁Are 1521
▁shall 1522
▁ideal 1523
▁London 1524
▁answer 1525
▁Vor 1526
▁gives 1527
ative 1528
▁timp 1529
▁center 1530
▁Group 1531
▁sans 1532
▁Ar 1533
▁Ma 1534
▁reach 1535
ren 1536
▁More 1537
mit 1538
▁guide 1539
▁fully 1540
▁Since 1541
▁Inc 1542
▁culture 1543
eat 1544
▁written 1545
▁Ho 1546
▁India 1547
▁Well 1548
back 1549
▁goes 1550
▁completely 1551
▁tour 1552
▁began 1553
▁picture 1554
▁mare 1555
▁playing 1556
▁trebuie 1557
ils 1558
chen 1559
▁hit 1560
▁complex 1561
▁Thank 1562
▁Let 1563
▁applications 1564
▁friend 1565
▁English 1566
▁charge 1567
▁recommend 1568
▁message 1569
In 1570
▁Mar 1571
pp 1572
▁method 1573
▁successful 1574
tion 1575
▁release 1576
▁creating 1577
▁despre 1578
esc 1579
▁eye 1580
▁apply 1581
net 1582
side 1583
▁ar 1584
▁platform 1585
▁touch 1586
▁towards 1587
▁match 1588
▁Black 1589
▁fall 1590
▁ground 1591
▁High 1592
▁Q 1593
▁schon 1594
▁hotel 1595
▁prices 1596
▁developed 1597
uk 1598
ide 1599
▁September 1600
ized 1601
▁War 1602
!! 1603
▁grow 1604
▁watch 1605
▁storage 1606
eau 1607
can 1608
▁Get 1609
▁See 1610
▁European 1611
▁language 1612
ează 1613
▁court 1614
▁Why 1615
▁hear 1616
▁doar 1617
lan 1618
▁Christmas 1619
▁Web 1620
vo 1621
▁sent 1622
▁businesses 1623
▁Red 1624
tel 1625
▁Ha 1626
▁wonderful 1627
ations 1628
za 1629
▁22 1630
▁thinking 1631
▁became 1632
▁cool 1633
▁speed 1634
mar 1635
▁-- 1636
▁groups 1637
▁interested 1638
ak 1639
▁60 1640
▁screen 1641
▁Design 1642
▁limited 1643
▁expected 1644
▁opportunities 1645
▁regular 1646
off 1647
▁Best 1648
Re 1649
▁ihr 1650
▁Great 1651
▁employees 1652
▁custom 1653
▁multe 1654
let 1655
▁benefit 1656
▁term 1657
▁bine 1658
▁deep 1659
▁August 1660
▁President 1661
▁Auf 1662
▁wish 1663
▁sometimes 1664
ari 1665
▁pressure 1666
▁ani 1667
▁trade 1668
▁firm 1669
▁comment 1670
▁November 1671
▁expect 1672
▁2012 1673
▁Ich 1674
▁relationship 1675
▁active 1676
org 1677
▁heat 1678
▁wood 1679
▁notre 1680
▁function 1681
▁2. 1682
▁wedding 1683
▁starting 1684
▁Health 1685
", 1686
▁death 1687
▁pages 1688
▁vehicle 1689
▁request 1690
▁helps 1691
▁blue 1692
▁analysis 1693
▁posted 1694
▁healthy 1695
▁contract 1696
▁• 1697
▁Each 1698
▁Fa 1699
▁dintre 1700
▁Friday 1701
▁considered 1702
cher 1703
▁quick 1704
▁understanding 1705
▁condition 1706
ization 1707
▁document 1708
▁prevent 1709
▁growing 1710
▁protection 1711
▁cat 1712
▁# 1713
10 1714
▁join 1715
▁serve 1716
▁blood 1717
▁July 1718
▁region 1719
car 1720
▁entre 1721
▁physical 1722
▁cash 1723
aux 1724
ng 1725
▁stage 1726
▁seem 1727
▁definitely 1728
▁investment 1729
▁purpose 1730
▁begin 1731
® 1732
▁break 1733
itate 1734
▁moving 1735
▁met 1736
ize 1737
▁select 1738
▁tous 1739
▁Europe 1740
@ 1741
▁individuals 1742
▁Zeit 1743
gu 1744
▁unit 1745
▁noi 1746
▁places 1747
all 1748
▁wait 1749
▁difference 1750
▁round 1751
50 1752
rie 1753
▁Et 1754
20 1755
▁activity 1756
е 1757
▁Windows 1758
▁produce 1759
▁keine 1760
▁Air 1761
▁January 1762
▁deux 1763
▁entry 1764
king 1765
▁goals 1766
▁previous 1767
▁+ 1768
▁Business 1769
ont 1770
▁Sunday 1771
▁offering 1772
▁response 1773
▁surface 1774
▁Department 1775
▁exactly 1776
▁Online 1777
dem 1778
ischen 1779
▁hands 1780
▁hour 1781
▁dog 1782
▁damage 1783
▁capital 1784
▁toate 1785
▁wrong 1786
unui 1787
tri 1788
▁sell 1789
▁published 1790
▁families 1791
▁avoid 1792
▁Ko 1793
▁mod 1794
rat 1795
▁Make 1796
▁October 1797
▁former 1798
▁Services 1799
▁felt 1800
▁selection 1801
eaza 1802
gel 1803
▁Good 1804
▁actual 1805
▁gut 1806
▁gas 1807
15 1808
▁structure 1809
▁act 1810
▁Zu 1811
▁creative 1812
▁Vi 1813
▁shop 1814
▁Lo 1815
şi 1816
▁mis 1817
ungen 1818
▁fan 1819
▁| 1820
▁Bei 1821
▁protect 1822
▁Na 1823
q 1824
ok 1825
▁California 1826
▁political 1827
25 1828
▁feeling 1829
▁ces 1830
▁display 1831
▁essential 1832
ând 1833
▁seine 1834
▁soft 1835
ach 1836
▁happen 1837
▁Paul 1838
▁Cu 1839
house 1840
ante 1841
▁easier 1842
▁sort 1843
▁Post 1844
▁accept 1845
field 1846
zen 1847
▁character 1848
▁beginning 1849
▁Jesus 1850
▁weekend 1851
▁certainly 1852
▁THE 1853
▁alle 1854
▁transport 1855
▁Saturday 1856
▁basic 1857
▁loved 1858
ros 1859
▁offered 1860
▁camera 1861
▁Green 1862
ology 1863
ä 1864
▁manage 1865
▁paid 1866
▁advice 1867
▁patient 1868
▁spent 1869
▁mir 1870
▁baby 1871
ö 1872
▁basis 1873
▁cancer 1874
▁Although 1875
▁gift 1876
▁3. 1877
dieser 1878
▁overall 1879
▁Sch 1880
▁Ex 1881
▁December 1882
▁released 1883
▁prior 1884
▁sowie 1885
▁club 1886
▁Street 1887
▁College 1888
▁î 1889
over 1890
▁gave 1891
▁truly 1892
par 1893
▁Canada 1894
▁existing 1895
lie 1896
▁ganz 1897
▁setting 1898
▁supply 1899
▁college 1900
▁communication 1901
▁23 1902
▁pass 1903
▁devices 1904
▁glass 1905
▁experienced 1906
▁grand 1907
▁Po 1908
▁beyond 1909
▁format 1910
▁mon 1911
▁perform 1912
sten 1913
▁1, 1914
▁Per 1915
▁sold 1916
▁rates 1917
▁regarding 1918
▁Paris 1919
▁Dar 1920
▁challenge 1921
▁feet 1922
▁Su 1923
je 1924
▁Bank 1925
ven 1926
jo 1927
▁band 1928
▁delivery 1929
Vous 1930
tele 1931
▁East 1932
▁pictures 1933
▁useful 1934
* 1935
▁increased 1936
▁stories 1937
sion 1938
bra 1939
▁brought 1940
▁effort 1941
▁payment 1942
▁heard 1943
▁played 1944
▁White 1945
▁metal 1946
tal 1947
▁engine 1948
▁Club 1949
ical 1950
▁effects 1951
▁degree 1952
▁bed 1953
ette 1954
▁David 1955
° 1956
▁Au 1957
▁Company 1958
▁player 1959
▁Today 1960
▁maintain 1961
▁minute 1962
mail 1963
▁race 1964
▁comfortable 1965
▁responsible 1966
vor 1967
▁associated 1968
▁weather 1969
▁$1 1970
▁tried 1971
▁Check 1972
▁solid 1973
▁movie 1974
▁coffee 1975
board 1976
▁po 1977
▁warm 1978
▁connect 1979
▁Ad 1980
work 1981
mal 1982
▁Act 1983
▁achieve 1984
▁Nach 1985
www 1986
term 1987
▁claim 1988
▁particularly 1989
▁cas 1990
▁furniture 1991
▁finish 1992
▁temps 1993
▁disease 1994
▁lots 1995
▁ball 1996
▁sun 1997
▁strategy 1998
bre 1999
▁mine 2000
▁Click 2001
ran 2002
▁Will 2003
▁garden 2004
▁stuff 2005
▁limit 2006
▁bottom 2007
▁shown 2008
ship 2009
▁habe 2010
▁Super 2011
▁completed 2012
▁wine 2013
ische 2014
▁largest 2015
▁appropriate 2016
▁immediately 2017
▁Hi 2018
▁trust 2019
ability 2020
▁powerful 2021
▁helping 2022
▁schedule 2023
▁correct 2024
▁transfer 2025
pre 2026
▁journey 2027
pm 2028
don 2029
▁highest 2030
▁finally 2031
form 2032
▁extremely 2033
▁window 2034
▁Over 2035
▁remove 2036
wood 2037
▁2013 2038
▁mother 2039
▁Auto 2040
▁annual 2041
▁Star 2042
▁Di 2043
о 2044
▁gold 2045
tar 2046
ju 2047
▁Use 2048
▁thanks 2049
▁centre 2050
▁Australia 2051
▁estate 2052
▁eyes 2053
▁force 2054
▁income 2055
▁science 2056
ori 2057
▁enter 2058
▁28 2059
ire 2060
▁schools 2061
▁restaurant 2062
▁Council 2063
aus 2064
▁agree 2065
▁campaign 2066
▁Ta 2067
▁letter 2068
▁central 2069
▁Because 2070
▁path 2071
▁loc 2072
▁files 2073
▁population 2074
▁explore 2075
▁mid 2076
▁concept 2077
▁church 2078
80 2079
▁einfach 2080
▁reasons 2081
▁determine 2082
▁February 2083
▁evidence 2084
▁sleep 2085
▁Board 2086
▁maybe 2087
▁wasn 2088
▁Monday 2089
▁director 2090
well 2091
During 2092
▁sweet 2093
▁assist 2094
▁police 2095
▁repair 2096
▁techniques 2097
▁served 2098
vi 2099
▁sports 2100
▁opening 2101
▁ones 2102
▁notice 2103
▁PC 2104
▁alte 2105
▁Bi 2106
▁cold 2107
▁billion 2108
▁balance 2109
cer 2110
▁nearly 2111
▁wear 2112
free 2113
▁Have 2114
▁comfort 2115
▁studies 2116
▁traffic 2117
▁item 2118
▁teaching 2119
▁turned 2120
isation 2121
12 2122
▁greater 2123
▁knew 2124
▁Association 2125
▁Office 2126
▁established 2127
45 2128
▁Love 2129
▁changed 2130
▁pan 2131
van 2132
▁Mi 2133
▁tend 2134
▁connection 2135
▁lack 2136
▁bank 2137
cat 2138
▁helped 2139
▁spot 2140
▁spring 2141
▁Wi 2142
▁Mac 2143
▁Christ 2144
▁saying 2145
▁General 2146
▁port 2147
▁Mal 2148
▁System 2149
▁According 2150
▁chiar 2151
log 2152
▁mix 2153
▁Lake 2154
▁intr 2155
▁deliver 2156
mon 2157
▁Ro 2158
▁Management 2159
bri 2160
▁pieces 2161
▁announced 2162
▁Yes 2163
▁dark 2164
val 2165
▁rights 2166
▁Diese 2167
ki 2168
vent 2169
▁born 2170
▁muss 2171
compared 2172
▁demand 2173
▁handle 2174
▁mode 2175
lic 2176
▁ahead 2177
▁sharing 2178
▁micro 2179
▁Par 2180
▁Every 2181
▁bag 2182
▁daca 2183
▁Apple 2184
▁Mark 2185
▁larger 2186
eze 2187
▁progress 2188
▁stress 2189
▁cards 2190
▁driving 2191
▁dry 2192
▁relevant 2193
▁Jo 2194
▁tree 2195
▁reported 2196
ities 2197
▁tea 2198
▁although 2199
▁Research 2200
▁pool 2201
▁fin 2202
▁Und 2203
▁decide 2204
▁expert 2205
rate 2206
zeit 2207
▁26 2208
▁Ka 2209
▁fix 2210
igen 2211
▁direction 2212
▁star 2213
▁middle 2214
▁Ja 2215
▁Land 2216
ken 2217
▁button 2218
▁rules 2219
▁également 2220
▁viel 2221
▁welcome 2222
că 2223
▁Top 2224
▁allowed 2225
▁tip 2226
▁cei 2227
▁Nous 2228
té 2229
▁unei 2230
▁efforts 2231
▁note 2232
▁title 2233
ric 2234
berg 2235
▁ainsi 2236
▁led 2237
▁alone 2238
ward 2239
▁vie 2240
▁brain 2241
light 2242
▁Court 2243
set 2244
▁steps 2245
pri 2246
Q 2247
sti 2248
▁voice 2249
▁models 2250
▁parties 2251
▁radio 2252
▁mission 2253
▁methods 2254
▁Te 2255
air 2256
▁essay 2257
my 2258
▁competition 2259
ses 2260
▁serious 2261
▁Ti 2262
▁Hand 2263
not 2264
▁winter 2265
24 2266
▁vision 2267
▁technical 2268
▁cross 2269
▁update 2270
▁Team 2271
▁evening 2272
▁experts 2273
part 2274
▁wo 2275
▁App 2276
▁peu 2277
▁mich 2278
▁reports 2279
▁km 2280
▁print 2281
▁Hotel 2282
▁earlier 2283
▁uses 2284
▁menu 2285
▁miles 2286
▁classes 2287
▁mo 2288
▁loan 2289
▁host 2290
▁author 2291
-1 2292
▁bun 2293
19 2294
uch 2295
ble 2296
▁holiday 2297
los 2298
▁looked 2299
▁Test 2300
▁moved 2301
▁numbers 2302
▁covered 2303
ker 2304
TM 2305
▁album 2306
▁27 2307
▁când 2308
▁shopping 2309
▁Ihr 2310
▁requires 2311
▁USA 2312
000 2313
▁official 2314
▁states 2315
▁tips 2316
ible 2317
▁Lu 2318
ces 2319
▁figure 2320
▁Take 2321
▁după 2322
▁teams 2323
▁song 2324
▁master 2325
ED 2326
▁cleaning 2327
▁drop 2328
▁primary 2329
▁Life 2330
▁carry 2331
▁initial 2332
▁encore 2333
▁Add 2334
▁woman 2335
▁Water 2336
▁advantage 2337
see 2338
ré 2339
▁motor 2340
mel 2341
▁finding 2342
▁plastic 2343
▁IT 2344
▁Church 2345
▁shape 2346
▁gets 2347
▁followed 2348
▁100% 2349
▁Program 2350
▁Another 2351
▁zwei 2352
▁father 2353
▁rich 2354
où 2355
▁lines 2356
▁distance 2357
▁cell 2358
▁parte 2359
bit 2360
▁perhaps 2361
rii 2362
▁session 2363
▁Pentru 2364
ING 2365
ants 2366
▁remain 2367
13 2368
▁finished 2369
bel 2370
▁organizations 2371
▁Any 2372
▁taste 2373
Whether 2374
ram 2375
like 2376
▁artist 2377
aire 2378
▁French 2379
▁donc 2380
ow 2381
▁200 2382
▁paint 2383
▁Open 2384
▁appear 2385
▁Washington 2386
▁target 2387
pir 2388
▁generally 2389
▁British 2390
▁seven 2391
▁bio 2392
▁sector 2393
90 2394
▁fapt 2395
▁prefer 2396
▁partner 2397
ăm 2398
▁diverse 2399
▁onto 2400
▁refer 2401
▁Law 2402
▁Ri 2403
▁critical 2404
▁copy 2405
ck 2406
ix 2407
tag 2408
▁Road 2409
▁concern 2410
▁maximum 2411
▁train 2412
▁într 2413
ura 2414
▁Qu 2415
▁links 2416
▁audience 2417
▁foot 2418
▁Blue 2419
ification 2420
▁developing 2421
▁interior 2422
= 2423
▁aceasta 2424
▁dedicated 2425
▁movement 2426
sta 2427
▁challenges 2428
inte 2429
▁Euro 2430
▁classic 2431
▁Um 2432
▁alternative 2433
mann 2434
▁Une 2435
qu 2436
▁heavy 2437
▁install 2438
▁fiind 2439
▁leaders 2440
▁views 2441
▁www 2442
▁standards 2443
ong 2444
40 2445
▁cm 2446
▁park 2447
▁himself 2448
▁People 2449
▁separate 2450
▁secure 2451
sie 2452
▁maintenance 2453
▁encourage 2454
ein 2455
▁reviews 2456
▁Michael 2457
▁background 2458
▁therefore 2459
▁server 2460
▁dream 2461
ping 2462
▁block 2463
▁2009 2464
▁facilities 2465
▁II 2466
▁attend 2467
▁cap 2468
35 2469
▁steel 2470
▁shared 2471
▁doctor 2472
▁River 2473
▁Bay 2474
▁length 2475
▁jobs 2476
▁Plus 2477
▁station 2478
▁elements 2479
▁rock 2480
▁professionals 2481
cle 2482
▁dont 2483
urilor 2484
▁gain 2485
▁programme 2486
▁Cor 2487
▁leader 2488
ării 2489
▁> 2490
▁task 2491
▁seeing 2492
▁statement 2493
vin 2494
▁fish 2495
▁advanced 2496
▁discuss 2497
die 2498
isch 2499
▁plenty 2500
▁Hall 2501
▁Other 2502
▁homes 2503
▁Ni 2504
▁testing 2505
▁Last 2506
▁Note 2507
▁talking 2508
▁exchange 2509
▁exercise 2510
▁cea 2511
▁wife 2512
▁Für 2513
▁Texas 2514
▁fr 2515
▁speak 2516
17 2517
70 2518
▁promote 2519
tul 2520
apos 2521
▁Jahr 2522
▁Trump 2523
▁ohne 2524
▁learned 2525
▁Sp 2526
▁owner 2527
mor 2528
▁fois 2529
▁meaning 2530
▁dacă 2531
nic 2532
а 2533
14 2534
▁driver 2535
▁Amazon 2536
▁flow 2537
▁shot 2538
▁sous 2539
▁Gold 2540
▁straight 2541
▁conference 2542
▁peste 2543
whose 2544
▁installation 2545
▁produced 2546
▁independent 2547
▁Institute 2548
▁James 2549
▁mental 2550
ara 2551
ium 2552
▁husband 2553
▁guests 2554
27 2555
▁Che 2556
▁Indian 2557
zer 2558
▁minimum 2559
500 2560
▁sit 2561
put 2562
▁avea 2563
▁ride 2564
gan 2565
▁Ke 2566
book 2567
ages 2568
▁presented 2569
▁Com 2570
▁Call 2571
▁fee 2572
ări 2573
▁putea 2574
▁Public 2575
▁pa 2576
28 2577
▁Director 2578
▁contains 2579
▁factors 2580
▁famous 2581
▁bathroom 2582
▁core 2583
▁viele 2584
▁acum 2585
▁animal 2586
▁Ihnen 2587
▁Find 2588
▁Fall 2589
ford 2590
▁coverage 2591
▁smart 2592
ries 2593
▁memory 2594
▁dance 2595
11 2596
▁communities 2597
eurs 2598
▁Florida 2599
▁sport 2600
▁bus 2601
▁colors 2602
▁affect 2603
▁score 2604
▁properties 2605
18 2606
▁astfel 2607
▁beach 2608
▁friendly 2609
izing 2610
▁buying 2611
▁forget 2612
este 2613
▁capacity 2614
▁lose 2615
▁listed 2616
ica 2617
han 2618
▁selbst 2619
▁values 2620
▁Power 2621
▁comments 2622
eux 2623
ați 2624
▁context 2625
liche 2626
▁keeping 2627
▁2008 2628
▁su 2629
▁biggest 2630
▁fiecare 2631
ight 2632
▁toute 2633
▁dinner 2634
bau 2635
▁Mai 2636
▁status 2637
rez 2638
▁selected 2639
▁cells 2640
▁eight 2641
▁package 2642
▁scale 2643
din 2644
▁Who 2645
▁century 2646
▁bi 2647
▁Africa 2648
▁http 2649
▁named 2650
▁adding 2651
▁mention 2652
▁casino 2653
▁couldn 2654
▁outdoor 2655
▁sugar 2656
▁prepared 2657
21 2658
▁Ba 2659
vers 2660
ration 2661
▁ja 2662
▁aspect 2663
▁31 2664
▁treat 2665
tru 2666
▁flat 2667
32 2668
▁reality 2669
▁waste 2670
▁King 2671
▁drug 2672
▁operations 2673
▁aim 2674
▁fans 2675
▁vers 2676
▁plants 2677
▁Dis 2678
▁Daten 2679
être 2680
▁placed 2681
▁bon 2682
beim 2683
▁slow 2684
cri 2685
▁Care 2686
mes 2687
26 2688
box 2689
▁helpful 2690
▁documents 2691
▁visitors 2692
ture 2693
▁Menschen 2694
▁Chi 2695
▁recipe 2696
▁kept 2697
▁Grand 2698
▁operating 2699
point 2700
▁bin 2701
▁Tri 2702
Be 2703
▁experiences 2704
▁academic 2705
▁finden 2706
▁sera 2707
act 2708
▁Pa 2709
▁society 2710
▁combination 2711
5% 2712
▁owners 2713
▁poor 2714
▁Robert 2715
▁military 2716
▁economy 2717
▁aware 2718
rot 2719
mie 2720
▁Thursday 2721
▁2011 2722
▁fantastic 2723
▁numerous 2724
▁fair 2725
med 2726
▁welche 2727
▁fruit 2728
ku 2729
▁Social 2730
▁funds 2731
▁atunci 2732
▁Part 2733
▁Big 2734
▁2010 2735
▁detail 2736
▁Peter 2737
ani 2738
▁Wie 2739
▁Tu 2740
ear 2741
▁Wenn 2742
▁manager 2743
▁Dan 2744
▁Pi 2745
▁wants 2746
▁Data 2747
pos 2748
▁older 2749
▁Download 2750
▁Was 2751
▁corner 2752
▁president 2753
mas 2754
▁smaller 2755
▁bright 2756
▁proper 2757
▁Kinder 2758
▁Two 2759
▁award 2760
▁premier 2761
▁seek 2762
▁thank 2763
▁proud 2764
▁workers 2765
▁2000 2766
▁gone 2767
▁medium 2768
▁grade 2769
▁Ru 2770
cro 2771
▁interview 2772
23 2773
▁mari 2774
▁80 2775
▁Ga 2776
▁90 2777
▁anderen 2778
▁cultural 2779
but 2780
rum 2781
get 2782
▁pop 2783
▁Information 2784
▁press 2785
▁Project 2786
▁excited 2787
▁Saint 2788
▁England 2789
▁beauty 2790
▁agreement 2791
▁Like 2792
▁strength 2793
▁waiting 2794
и 2795
Le 2796
▁residents 2797
▁Ben 2798
▁mentioned 2799
▁etwas 2800
▁rooms 2801
▁neue 2802
▁Microsoft 2803
▁passed 2804
▁sea 2805
▁electric 2806
▁forms 2807
▁Central 2808
▁Lord 2809
ute 2810
▁pré 2811
▁square 2812
itatea 2813
▁debt 2814
▁street 2815
▁pi 2816
▁happened 2817
▁Tuesday 2818
recht 2819
▁Eine 2820
▁Set 2821
▁federal 2822
CC 2823
.... 2824
lig 2825
▁Christian 2826
▁truth 2827
▁map 2828
▁secret 2829
▁Chinese 2830
hol 2831
▁wrote 2832
▁hospital 2833
▁Island 2834
▁frame 2835
▁sources 2836
pan 2837
▁29 2838
▁changing 2839
▁Where 2840
▁negative 2841
▁processes 2842
▁leadership 2843
▁nos 2844
▁info 2845
▁Gu 2846
▁CO 2847
▁reference 2848
▁corporate 2849
▁characters 2850
▁dining 2851
▁becoming 2852
▁4. 2853
▁Science 2854
▁Education 2855
▁camp 2856
fall 2857
▁Auch 2858
▁topic 2859
▁influence 2860
▁70 2861
▁identify 2862
▁(19 2863
care 2864
ions 2865
ray 2866
▁Both 2867
▁collect 2868
▁practices 2869
▁fight 2870
▁injury 2871
▁nici 2872
▁depuis 2873
▁actions 2874
▁Wednesday 2875
▁bill 2876
▁cheap 2877
lui 2878
▁awesome 2879
tig 2880
▁expensive 2881
ceea 2882
▁exact 2883
22 2884
▁avant 2885
▁fat 2886
▁spending 2887
▁designs 2888
▁damit 2889
▁comp 2890
▁whatever 2891
▁Light 2892
▁quarter 2893
hand 2894
▁connected 2895
▁technologies 2896
ges 2897
▁shower 2898
▁500 2899
▁Time 2900
▁zone 2901
▁vote 2902
▁andere 2903
▁otherwise 2904
tur 2905
▁happens 2906
hin 2907
▁volume 2908
▁thousands 2909
war 2910
▁Play 2911
▁temperature 2912
▁industrial 2913
▁fuel 2914
100 2915
top 2916
kin 2917
▁efficient 2918
teil 2919
alt 2920
▁monde 2921
▁Ra 2922
▁bedroom 2923
▁showing 2924
▁continued 2925
▁Plan 2926
▁assistance 2927
▁discover 2928
▁Year 2929
▁applied 2930
▁audio 2931
▁thus 2932
▁permet 2933
▁fashion 2934
cra 2935
ious 2936
▁focused 2937
16 2938
▁arm 2939
▁Their 2940
▁Foundation 2941
▁majority 2942
▁wind 2943
▁bought 2944
▁factor 2945
▁opened 2946
tern 2947
▁cars 2948
▁exciting 2949
▁affordable 2950
ches 2951
▁panel 2952
▁caused 2953
▁travail 2954
▁roof 2955
▁enable 2956
▁toward 2957
▁Development 2958
▁foreign 2959
avi 2960
long 2961
De 2962
▁Mon 2963
▁Va 2964
AP 2965
▁asta 2966
▁prepare 2967
▁German 2968
▁Centre 2969
ère 2970
▁fear 2971
▁Este 2972
▁Des 2973
▁Kon 2974
á 2975
stand 2976
▁Real 2977
lichen 2978
▁Beach 2979
▁expertise 2980
▁route 2981
▁nation 2982
▁snow 2983
▁articles 2984
▁Wood 2985
▁operation 2986
▁passion 2987
▁cand 2988
haus 2989
OR 2990
▁senior 2991
▁becomes 2992
▁sounds 2993
▁enjoyed 2994
▁gegen 2995
▁courses 2996
▁absolutely 2997
tim 2998
uff 2999
▁moins 3000
▁TO 3001
▁fabric 3002
poli 3003
▁Bre 3004
▁bo 3005
▁Elle 3006
bu 3007
▁participants 3008
stone 3009
ties 3010
▁listen 3011
▁Spiel 3012
pot 3013
▁selling 3014
▁geht 3015
▁mini 3016
▁trans 3017
▁ingredients 3018
auf 3019
▁orice 3020
▁Next 3021
▁cream 3022
▁edge 3023
▁recommended 3024
▁Form 3025
▁processing 3026
vert 3027
▁described 3028
▁installed 3029
▁managed 3030
▁electronic 3031
▁performed 3032
▁raise 3033
▁imagine 3034
down 3035
▁fond 3036
▁Inter 3037
▁Mc 3038
▁Dans 3039
istic 3040
▁miss 3041
sur 3042
▁Col 3043
cut 3044
▁dupa 3045
▁Twitter 3046
▁bowl 3047
▁remains 3048
▁Jan 3049
▁smooth 3050
▁fees 3051
▁aid 3052
▁presence 3053
▁Android 3054
▁decisions 3055
▁names 3056
▁Music 3057
▁innovative 3058
▁Tom 3059
▁spread 3060
▁lovely 3061
▁daughter 3062
US 3063
▁facility 3064
▁peace 3065
▁department 3066
▁weiter 3067
▁Sun 3068
▁fund 3069
▁2018. 3070
▁discussion 3071
75 3072
EC 3073
▁lunch 3074
▁videos 3075
05 3076
ige 3077
▁parking 3078
▁relationships 3079
▁George 3080
▁teachers 3081
room 3082
▁Tra 3083
▁Sam 3084
▁properly 3085
▁Book 3086
▁CA 3087
▁calls 3088
▁stat 3089
ux 3090
▁soit 3091
▁Community 3092
▁Jahren 3093
▁increasing 3094
▁civil 3095
app 3096
▁35 3097
▁rise 3098
▁dabei 3099
▁studio 3100
▁policies 3101
▁agent 3102
▁Before 3103
▁Cal 3104
▁2005 3105
▁sample 3106
▁manner 3107
wing 3108
stra 3109
▁fel 3110
▁Show 3111
▁scene 3112
mic 3113
nom 3114
▁typically 3115
▁pair 3116
▁detailed 3117
▁Work 3118
▁cities 3119
▁Rock 3120
▁Gar 3121
▁serving 3122
▁machen 3123
▁trees 3124
▁accident 3125
▁cloud 3126
▁animals 3127
▁Den 3128
▁Wa 3129
▁suggest 3130
putting 3131
▁suite 3132
▁clearly 3133
▁net 3134
▁funding 3135
▁salt 3136
▁Men 3137
ped 3138
▁Food 3139
▁leaving 3140
▁Government 3141
ick 3142
▁seat 3143
▁Los 3144
▁teacher 3145
▁iPhone 3146
▁300 3147
▁commitment 3148
▁aspects 3149
▁previously 3150
▁cent 3151
▁Vo 3152
▁artists 3153
▁runs 3154
> 3155
▁Gi 3156
▁mar 3157
!!! 3158
▁Media 3159
▁feedback 3160
▁resolution 3161
IN 3162
▁wurden 3163
▁busy 3164
▁adult 3165
29 3166
elles 3167
▁closed 3168
▁trouble 3169
▁rent 3170
lot 3171
▁importance 3172
▁units 3173
Pro 3174
▁provider 3175
▁visual 3176
IT 3177
▁diet 3178
▁appearance 3179
pin 3180
▁Din 3181
▁eating 3182
Fi 3183
ball 3184
är 3185
ney 3186
▁records 3187
▁Fi 3188
▁faut 3189
▁CD 3190
ign 3191
▁vă 3192
▁agency 3193
ierung 3194
▁Back 3195
▁windows 3196
▁pull 3197
ash 3198
▁profit 3199
▁brings 3200
▁Committee 3201
▁girl 3202
▁vehicles 3203
▁Hier 3204
ES 3205
până 3206
▁Kunden 3207
pen 3208
▁explain 3209
▁cadru 3210
▁attack 3211
▁markets 3212
▁claims 3213
▁walking 3214
▁pouv 3215
low 3216
▁showed 3217
▁principal 3218
▁lucru 3219
▁precum 3220
TA 3221
▁partners 3222
▁exist 3223
▁internal 3224
hen 3225
▁Master 3226
unless 3227
▁doubt 3228
$ 3229
▁Long 3230
▁leaves 3231
allowing 3232
pol 3233
▁Up 3234
▁Contact 3235
▁practical 3236
▁suit 3237
▁Site 3238
▁formation 3239
▁signal 3240
▁approximately 3241
▁ourselves 3242
▁colour 3243
▁species 3244
▁advance 3245
▁PM 3246
ans 3247
▁locations 3248
vous 3249
▁updated 3250
▁faith 3251
mus 3252
▁stores 3253
heim 3254
▁suitable 3255
▁continues 3256
▁fac 3257
ever 3258
▁Bill 3259
▁chose 3260
▁inform 3261
▁environmental 3262
▁responsibility 3263
99 3264
▁competitive 3265
▁strategies 3266
▁toujours 3267
tive 3268
▁automatically 3269
▁dress 3270
▁Minister 3271
har 3272
▁Start 3273
▁= 3274
▁pattern 3275
tier 3276
▁pays 3277
▁profile 3278
▁raised 3279
ange 3280
▁drink 3281
▁element 3282
▁landscape 3283
▁Tag 3284
▁cheese 3285
ific 3286
▁Stadt 3287
39 3288
▁launch 3289
▁wouldn 3290
AS 3291
▁push 3292
▁mill 3293
▁mass 3294
▁category 3295
sondern 3296
col 3297
▁climate 3298
lier 3299
▁slightly 3300
95 3301
ace 3302
▁domain 3303
kan 3304
▁feed 3305
▁Live 3306
▁Mais 3307
▁après 3308
▁village 3309
▁hatte 3310
▁joined 3311
▁Museum 3312
head 3313
▁draw 3314
▁concerns 3315
ER 3316
▁technique 3317
▁Bio 3318
▁Sea 3319
▁@ 3320
wer 3321
▁battery 3322
▁mostly 3323
▁familiar 3324
▁Sub 3325
▁delicious 3326
doch 3327
60 3328
▁carte 3329
▁avut 3330
▁premium 3331
▁attempt 3332
▁Über 3333
▁combined 3334
lement 3335
▁voi 3336
▁wonder 3337
▁failure 3338
which 3339
esti 3340
31 3341
▁sta 3342
▁transform 3343
▁license 3344
▁depending 3345
▁specifically 3346
▁OF 3347
band 3348
▁Sport 3349
list 3350
▁Tour 3351
▁Israel 3352
▁filled 3353
▁manual 3354
▁watching 3355
▁rule 3356
mat 3357
▁notes 3358
▁Oh 3359
▁bereits 3360
▁foundation 3361
▁vital 3362
▁lassen 3363
▁cât 3364
▁shipping 3365
▁registered 3366
▁jour 3367
▁island 3368
▁sets 3369
▁football 3370
▁EU 3371
▁stone 3372
▁Press 3373
▁adapt 3374
ised 3375
▁thoughts 3376
▁doors 3377
€ 3378
▁components 3379
rig 3380
▁generation 3381
▁guess 3382
cker 3383
▁realize 3384
▁Roman 3385
▁contre 3386
▁Out 3387
▁IN 3388
cip 3389
59 3390
▁enhance 3391
▁battle 3392
▁monitor 3393
▁Martin 3394
▁websites 3395
▁DE 3396
▁Festival 3397
ân 3398
▁Place 3399
▁rare 3400
această 3401
▁sollte 3402
▁Read 3403
ware 3404
Those 3405
ende 3406
▁prix 3407
▁roman 3408
▁creation 3409
▁confidence 3410
▁Japan 3411
▁rain 3412
▁guys 3413
▁south 3414
▁trading 3415
▁€ 3416
▁Film 3417
▁pana 3418
▁asemenea 3419
36 3420
▁instance 3421
cou 3422
▁nun 3423
▁Pass 3424
Cette 3425
▁Network 3426
▁prime 3427
▁spiritual 3428
▁tough 3429
▁AND 3430
▁Cat 3431
▁boat 3432
▁leads 3433
▁Germany 3434
▁valuable 3435
57 3436
lect 3437
▁distribution 3438
dar 3439
▁Manager 3440
cha 3441
▁obtain 3442
GB 3443
▁unor 3444
schaft 3445
▁zwischen 3446
▁winning 3447
▁suis 3448
58 3449
▁Party 3450
▁ceva 3451
▁comprehensive 3452
▁aceste 3453
▁committed 3454
▁Hu 3455
ţ 3456
▁north 3457
werk 3458
▁interface 3459
▁Valley 3460
▁anywhere 3461
▁Only 3462
TE 3463
hui 3464
bus 3465
vis 3466
▁Society 3467
▁reliable 3468
▁quelques 3469
tech 3470
ual 3471
▁educational 3472
serv 3473
▁opinion 3474
▁appears 3475
▁count 3476
irea 3477
ban 3478
▁45 3479
▁contain 3480
ost 3481
▁anul 3482
rien 3483
gra 3484
▁counter 3485
-3 3486
▁resource 3487
▁Wo 3488
▁posts 3489
▁employee 3490
rol 3491
▁ended 3492
met 3493
▁meine 3494
▁reached 3495
gri 3496
▁Bra 3497
▁conduct 3498
▁housing 3499
▁tickets 3500
▁database 3501
IL 3502
▁perspective 3503
▁Har 3504
▁error 3505
▁meal 3506
▁hearing 3507
▁transition 3508
▁browser 3509
▁supported 3510
▁starts 3511
țe 3512
▁adults 3513
▁România 3514
dra 3515
▁worry 3516
▁avoir 3517
▁regional 3518
▁min 3519
▁Does 3520
▁Keep 3521
rom 3522
sco 3523
tem 3524
▁Old 3525
▁Under 3526
▁Commission 3527
▁Bau 3528
▁News 3529
▁mois 3530
▁respond 3531
▁alles 3532
▁chair 3533
▁ho 3534
right 3535
▁totally 3536
gle 3537
▁32 3538
66 3539
town 3540
Ch 3541
▁gr 3542
▁garage 3543
ții 3544
▁Union 3545
ică 3546
▁2, 3547
▁reflect 3548
▁retail 3549
▁unde 3550
▁accessible 3551
water 3552
▁regard 3553
▁logo 3554
▁inspired 3555
▁Wall 3556
▁Ste 3557
▁asking 3558
▁Journal 3559
▁Teil 3560
▁collaboration 3561
▁acid 3562
▁Fund 3563
▁spirit 3564
despite 3565
▁delivered 3566
▁girls 3567
▁Look 3568
rant 3569
▁District 3570
▁rental 3571
▁spune 3572
els 3573
▁permanent 3574
▁iron 3575
▁Thomas 3576
EL 3577
▁except 3578
▁catch 3579
▁providers 3580
▁2006 3581
▁chat 3582
▁emergency 3583
gre 3584
site 3585
▁missing 3586
abil 3587
▁Hill 3588
urs 3589
▁plusieurs 3590
▁birthday 3591
DS 3592
ersten 3593
▁5. 3594
▁library 3595
▁earth 3596
CI 3597
▁lighting 3598
▁fixed 3599
tori 3600
▁replace 3601
▁administration 3602
leurs 3603
▁meat 3604
▁songs 3605
▁confirm 3606
▁rapid 3607
▁Special 3608
▁holding 3609
▁honor 3610
▁Market 3611
La 3612
▁measure 3613
▁guarantee 3614
▁switch 3615
▁extensive 3616
▁Neu 3617
avez 3618
▁protein 3619
▁infrastructure 3620
▁functions 3621
▁cont 3622
row 3623
star 3624
▁Port 3625
Using 3626
▁faster 3627
44 3628
▁measures 3629
▁celor 3630
▁exam 3631
200 3632
î 3633
▁conversation 3634
▁brands 3635
▁Code 3636
▁Website 3637
OS 3638
▁alors 3639
▁organ 3640
▁removed 3641
▁Head 3642
▁Cha 3643
▁visiting 3644
▁wild 3645
▁seit 3646
49 3647
▁organic 3648
aţi 3649
▁kit 3650
68 3651
▁flowers 3652
▁appreciate 3653
▁dead 3654
▁Fire 3655
▁cela 3656
▁Ph 3657
▁arrive 3658
▁purposes 3659
▁qualité 3660
▁restaurants 3661
▁advertising 3662
cur 3663
▁ça 3664
▁introduced 3665
▁returned 3666
▁desire 3667
▁soul 3668
▁Technology 3669
); 3670
▁Royal 3671
tant 3672
▁possibly 3673
▁consumers 3674
▁doua 3675
ified 3676
▁Award 3677
toutes 3678
▁meant 3679
ezi 3680
▁plu 3681
ţii 3682
▁talent 3683
▁Security 3684
arii 3685
▁zi 3686
▁Shop 3687
▁breakfast 3688
▁trial 3689
ami 3690
▁register 3691
unserer 3692
▁solar 3693
▁deals 3694
▁Ku 3695
To 3696
bat 3697
MC 3698
▁Global 3699
у 3700
▁nor 3701
▁milk 3702
▁choices 3703
» 3704
▁Sur 3705
more 3706
48 3707
67 3708
▁replacement 3709
34 3710
▁chocolate 3711
▁Family 3712
This 3713
▁novel 3714
▁Chicago 3715
▁participate 3716
▁trei 3717
▁monthly 3718
▁survey 3719
▁End 3720
▁Medical 3721
autres 3722
rich 3723
▁bike 3724
▁eventually 3725
▁HD 3726
bil 3727
cent 3728
▁afin 3729
▁surgery 3730
▁sin 3731
▁manufacturing 3732
▁consumer 3733
system 3734
▁object 3735
▁Ju 3736
ered 3737
rac 3738
▁clinical 3739
▁dollars 3740
▁chain 3741
▁afternoon 3742
▁ligne 3743
▁accounts 3744
ving 3745
▁Australian 3746
38 3747
▁persoane 3748
▁grande 3749
▁Report 3750
▁revenue 3751
▁spre 3752
▁cutting 3753
▁approved 3754
▁glad 3755
chaque 3756
win 3757
▁waren 3758
▁launched 3759
▁layer 3760
▁airport 3761
▁effectively 3762
▁coach 3763
dé 3764
LE 3765
▁müssen 3766
plan 3767
dan 3768
55 3769
bringing 3770
▁$2 3771
nce 3772
▁inspiration 3773
You 3774
▁soll 3775
▁seemed 3776
▁flight 3777
▁prima 3778
▁Welt 3779
▁jetzt 3780
ky 3781
▁Western 3782
▁label 3783
▁möglich 3784
▁input 3785
▁laws 3786
▁personnes 3787
▁paying 3788
▁Uhr 3789
▁Mary 3790
pur 3791
▁covers 3792
▁throw 3793
▁Tor 3794
▁bat 3795
▁Gr 3796
▁farm 3797
▁improved 3798
▁fără 3799
▁theme 3800
pens 3801
▁Cup 3802
▁settings 3803
▁hire 3804
▁massive 3805
▁generate 3806
▁earn 3807
▁tab 3808
For 3809
gang 3810
▁hin 3811
▁roll 3812
▁engagement 3813
▁signed 3814
▁League 3815
▁registration 3816
▁première 3817
isse 3818
▁university 3819
ell 3820
▁nou 3821
rog 3822
▁sitting 3823
▁cazul 3824
▁surrounding 3825
▁Asia 3826
▁bath 3827
hal 3828
▁plate 3829
▁tests 3830
▁presentation 3831
▁chicken 3832
▁Val 3833
ably 3834
▁magazine 3835
▁Maybe 3836
▁sauce 3837
TC 3838
▁exclusive 3839
86 3840
▁teeth 3841
▁regularly 3842
sed 3843
gro 3844
He 3845
▁2017. 3846
▁template 3847
▁gleich 3848
bal 3849
▁African 3850
în 3851
▁rep 3852
▁beat 3853
▁deck 3854
▁intended 3855
▁para 3856
▁IP 3857
▁bra 3858
▁forces 3859
▁routine 3860
▁Jahre 3861
▁Bad 3862
▁drivers 3863
▁updates 3864
▁elegant 3865
▁external 3866
▁engineering 3867
ender 3868
table 3869
inter 3870
▁Romania 3871
▁zile 3872
▁luxury 3873
▁calling 3874
▁cooking 3875
▁component 3876
wan 3877
schen 3878
▁birth 3879
asupra 3880
Co 3881
▁opt 3882
▁discovered 3883
▁teach 3884
▁Son 3885
▁guest 3886
▁dogs 3887
▁2003 3888
▁behavior 3889
pé 3890
63 3891
▁Human 3892
▁expression 3893
▁nevoie 3894
▁recherche 3895
ging 3896
related 3897
▁discount 3898
▁Brown 3899
▁Such 3900
▁Ve 3901
▁height 3902
clo 3903
▁incredible 3904
▁bas 3905
▁mă 3906
▁purchased 3907
▁compte 3908
▁instructions 3909
▁Instead 3910
▁output 3911
▁mom 3912
DR 3913
89 3914
▁reduced 3915
98 3916
▁constant 3917
▁therapy 3918
▁capable 3919
mark 3920
▁Sometimes 3921
▁joy 3922
▁perfectly 3923
▁painting 3924
avait 3925
▁Sha 3926
▁dat 3927
▁produits 3928
tric 3929
ierte 3930
▁Smith 3931
▁trebui 3932
▁beaucoup 3933
▁chosen 3934
▁cre 3935
▁complet 3936
▁Ltd 3937
▁recovery 3938
▁district 3939
78 3940
▁Unter 3941
▁schnell 3942
▁apart 3943
▁phase 3944
▁seeking 3945
▁mark 3946
▁pet 3947
▁PDF 3948
▁efficiency 3949
▁buildings 3950
69 3951
▁sens 3952
▁Video 3953
▁destination 3954
▁female 3955
▁supporting 3956
▁signs 3957
▁appeal 3958
76 3959
▁favourite 3960
ock 3961
▁readers 3962
▁Did 3963
rou 3964
PA 3965
▁Jean 3966
▁Em 3967
pass 3968
▁Zi 3969
▁între 3970
▁fly 3971
mos 3972
▁emotional 3973
asse 3974
▁sessions 3975
▁symptoms 3976
▁died 3977
▁seconds 3978
▁procedure 3979
▁express 3980
▁două 3981
▁valid 3982
▁euro 3983
▁interests 3984
Having 3985
▁hundreds 3986
grad 3987
▁neuen 3988
▁cook 3989
▁pur 3990
▁charges 3991
sche 3992
▁smile 3993
▁festival 3994
cho 3995
▁£ 3996
cht 3997
▁macht 3998
▁Wasser 3999
▁Cap 4000
▁Learn 4001
▁load 4002
▁aici 4003
▁Ch 4004
▁cycle 4005
▁carried 4006
▁jusqu 4007
stein 4008
ski 4009
cap 4010
▁Bal 4011
▁minor 4012
77 4013
▁considering 4014
innen 4015
▁greatest 4016
▁Training 4017
08 4018
▁significantly 4019
gé 4020
▁dumpster 4021
▁allem 4022
▁bonus 4023
▁guy 4024
fel 4025
▁lifestyle 4026
▁Bro 4027
▁implement 4028
lock 4029
▁Earth 4030
kar 4031
▁invest 4032
▁river 4033
▁accurate 4034
▁mu 4035
▁celebrate 4036
▁ran 4037
▁bigger 4038
▁Mer 4039
▁millions 4040
▁partie 4041
▁dazu 4042
▁Full 4043
gie 4044
bot 4045
roll 4046
▁Women 4047
▁compare 4048
▁van 4049
▁apps 4050
PC 4051
▁drei 4052
▁maison 4053
▁knows 4054
rid 4055
62 4056
class 4057
▁chez 4058
char 4059
88 4060
▁cast 4061
▁examples 4062
▁Therefore 4063
▁topics 4064
with 4065
▁Anti 4066
how 4067
▁whom 4068
▁Deutschland 4069
tine 4070
▁CEO 4071
▁truck 4072
▁Which 4073
erie 4074
fect 4075
bou 4076
▁(1 4077
sum 4078
▁bonne 4079
▁remaining 4080
▁equal 4081
▁engage 4082
▁RE 4083
style 4084
▁urma 4085
▁Grund 4086
ür 4087
▁font 4088
▁assets 4089
AL 4090
▁rear 4091
▁contemporary 4092
▁occur 4093
rated 4094
▁tight 4095
▁machines 4096
▁0. 4097
▁Aber 4098
sol 4099
rü 4100
▁2007 4101
gg 4102
▁unul 4103
▁était 4104
▁capture 4105
▁command 4106
▁wire 4107
▁shift 4108
▁bread 4109
▁causes 4110
PI 4111
SC 4112
▁lights 4113
▁lived 4114
mul 4115
▁Cur 4116
▁Richard 4117
37 4118
▁cup 4119
▁fields 4120
▁crusher 4121
65 4122
avons 4123
▁gear 4124
▁standing 4125
▁thick 4126
aff 4127
ments 4128
▁conflict 4129
ität 4130
▁worse 4131
SE 4132
imi 4133
▁dating 4134
Do 4135
▁flexible 4136
ologie 4137
SU 4138
▁contribute 4139
▁denn 4140
▁appointment 4141
▁ticket 4142
bed 4143
▁2019. 4144
▁tasks 4145
▁carbon 4146
▁situations 4147
MA 4148
▁portion 4149
▁urban 4150
▁Canadian 4151
▁Bur 4152
▁pack 4153
▁effet 4154
▁Ball 4155
▁timpul 4156
▁owned 4157
▁surprise 4158
▁Mu 4159
▁decades 4160
▁affected 4161
▁proven 4162
▁Fe 4163
zy 4164
42 4165
▁trend 4166
▁autres 4167
No 4168
▁nine 4169
ON 4170
NE 4171
oli 4172
▁Daniel 4173
▁spa 4174
▁messages 4175
PS 4176
47 4177
▁doch 4178
▁improvement 4179
▁mountain 4180
▁Room 4181
▁edition 4182
▁musical 4183
CP 4184
▁Mill 4185
▁steht 4186
▁determined 4187
you 4188
weg 4189
▁Digital 4190
▁filter 4191
▁youth 4192
▁assessment 4193
▁butter 4194
▁Watch 4195
▁zusammen 4196
▁View 4197
09 4198
▁sole 4199
.00 4200
33 4201
▁export 4202
ery 4203
▁zurück 4204
▁walls 4205
▁recognize 4206
law 4207
▁parent 4208
ST 4209
▁description 4210
MS 4211
SM 4212
▁Finally 4213
▁hardware 4214
ident 4215
▁brown 4216
▁kinds 4217
▁Arts 4218
▁concert 4219
▁sec 4220
▁represent 4221
▁institutions 4222
▁fur 4223
▁Support 4224
87 4225
▁ease 4226
▁feels 4227
▁sheet 4228
▁Though 4229
▁propose 4230
▁personnel 4231
bie 4232
▁contest 4233
▁successfully 4234
▁direkt 4235
bietet 4236
▁submit 4237
▁sicher 4238
▁Personal 4239
94 4240
61 4241
▁Very 4242
bol 4243
▁ha 4244
▁channel 4245
mut 4246
▁mouth 4247
▁vast 4248
▁Ob 4249
lit 4250
▁poly 4251
▁trained 4252
▁specialist 4253
UL 4254
▁seiner 4255
SS 4256
▁vacation 4257
▁resume 4258
▁constantly 4259
▁treated 4260
▁150 4261
▁native 4262
▁Russian 4263
▁patterns 4264
▁knowing 4265
▁Pan 4266
peri 4267
aci 4268
▁answers 4269
▁heute 4270
93 4271
▁Winter 4272
▁yes 4273
SP 4274
]. 4275
▁kein 4276
▁introduce 4277
-4 4278
▁shoot 4279
AR 4280
▁receiving 4281
▁intre 4282
▁appeared 4283
▁brother 4284
▁extend 4285
▁fara 4286
▁kommt 4287
ali 4288
▁numai 4289
▁scientific 4290
▁virtual 4291
▁Ac 4292
▁procedures 4293
▁silver 4294
▁leather 4295
DA 4296
▁executive 4297
▁officials 4298
▁agencies 4299
▁Software 4300
▁cor 4301
Con 4302
▁log 4303
ț 4304
02 4305
▁7. 4306
▁accepted 4307
▁Berlin 4308
ID 4309
cot 4310
▁employment 4311
run 4312
▁identified 4313
96 4314
▁déjà 4315
▁cuisine 4316
turi 4317
▁Japanese 4318
▁golf 4319
▁Ki 4320
▁carefully 4321
▁remote 4322
▁2018, 4323
▁sus 4324
tique 4325
▁residential 4326
97 4327
▁Spring 4328
▁Marketing 4329
▁Control 4330
var 4331
▁historical 4332
▁freedom 4333
sure 4334
▁broken 4335
▁criminal 4336
▁innovation 4337
▁Italian 4338
sper 4339
▁cake 4340
▁candidates 4341
▁sizes 4342
pel 4343
▁frequently 4344
▁planet 4345
▁writer 4346
1, 4347
uvent 4348
▁awareness 4349
name 4350
▁Children 4351
▁relatively 4352
▁pu 4353
▁quiet 4354
▁planned 4355
▁election 4356
▁6. 4357
▁broad 4358
▁skill 4359
▁reasonable 4360
▁Fort 4361
▁aceea 4362
▁arrived 4363
▁payments 4364
ack 4365
▁Ort 4366
▁investors 4367
▁operate 4368
ME 4369
dic 4370
▁foods 4371
▁stick 4372
▁agents 4373
▁crowd 4374
▁Students 4375
▁concerned 4376
test 4377
▁designer 4378
▁Conference 4379
▁saving 4380
▁recorded 4381
▁proposed 4382
▁ship 4383
▁cred 4384
▁Ci 4385
RE 4386
▁tradition 4387
▁worldwide 4388
64 4389
▁television 4390
▁projet 4391
ency 4392
▁struggle 4393
▁twice 4394
▁Off 4395
▁begins 4396
key 4397
▁Table 4398
▁demande 4399
▁liquid 4400
meter 4401
▁2001 4402
▁willing 4403
▁medicine 4404
▁expand 4405
▁2004 4406
▁2002 4407
▁accord 4408
▁Chris 4409
▁prove 4410
ston 4411
mettre 4412
▁moments 4413
tik 4414
such 4415
2. 4416
▁UN 4417
▁jump 4418
▁dish 4419
▁Key 4420
▁challenging 4421
▁domestic 4422
▁impressive 4423
iger 4424
▁Ram 4425
▁doit 4426
▁concrete 4427
▁Unternehmen 4428
▁LED 4429
▁trouver 4430
▁fundamental 4431
▁implementation 4432
85 4433
▁hosting 4434
▁Game 4435
▁taught 4436
tung 4437
ront 4438
▁shoes 4439
79 4440
▁stunning 4441
▁Congress 4442
▁Ent 4443
▁Wer 4444
▁alt 4445
ör 4446
▁calm 4447
46 4448
▁Daca 4449
71 4450
▁Dec 4451
▁Fo 4452
▁defense 4453
▁expectations 4454
▁Alle 4455
▁brief 4456
▁Hospital 4457
▁sides 4458
▁yellow 4459
lei 4460
▁speaking 4461
▁crucial 4462
▁Town 4463
▁married 4464
▁acesta 4465
▁noted 4466
▁Word 4467
▁conducted 4468
▁decor 4469
kon 4470
▁supplies 4471
▁adventure 4472
▁exhibition 4473
heit 4474
▁36 4475
eria 4476
ines 4477
ological 4478
quel 4479
▁Van 4480
-19 4481
2, 4482
▁Band 4483
▁soil 4484
▁Tim 4485
▁NOT 4486
▁pilot 4487
▁Sh 4488
Ho 4489
CA 4490
▁Eu 4491
▁committee 4492
▁Store 4493
▁joint 4494
▁Op 4495
▁Jack 4496
quality 4497
▁Has 4498
▁wenig 4499
hood 4500
▁Class 4501
rus 4502
▁grown 4503
▁About 4504
▁sum 4505
▁Fair 4506
SA 4507
92 4508
▁fourth 4509
▁featured 4510
▁Pen 4511
▁natürlich 4512
ched 4513
▁ban 4514
anne 4515
▁theory 4516
bin 4517
iers 4518
▁strategic 4519
▁jours 4520
▁communicate 4521
▁pin 4522
▁Bon 4523
kom 4524
-5 4525
▁degrees 4526
▁entertainment 4527
ară 4528
ales 4529
▁pendant 4530
▁Series 4531
▁holds 4532
▁Mini 4533
▁Obama 4534
▁conform 4535
-10 4536
▁preparation 4537
▁autre 4538
▁mortgage 4539
▁Kan 4540
▁typical 4541
01 4542
▁Review 4543
▁laptop 4544
CR 4545
▁thread 4546
BS 4547
▁upper 4548
▁searching 4549
▁pen 4550
▁Middle 4551
73 4552
▁leg 4553
onic 4554
IS 4555
▁Kar 4556
anz 4557
▁circuit 4558
▁Casino 4559
07 4560
▁petit 4561
TV 4562
level 4563
▁Point 4564
rau 4565
▁cabinet 4566
▁failed 4567
▁stated 4568
LA 4569
▁privacy 4570
vol 4571
ativ 4572
▁matters 4573
▁Mor 4574
▁Ur 4575
view 4576
▁consultation 4577
TS 4578
▁apartment 4579
▁integrated 4580
74 4581
▁Through 4582
▁kick 4583
▁perioada 4584
▁entirely 4585
▁impossible 4586
▁consideration 4587
▁Alt 4588
▁Come 4589
▁outstanding 4590
83 4591
▁prezent 4592
▁Local 4593
▁Camp 4594
▁bear 4595
enden 4596
life 4597
▁Haus 4598
▁William 4599
“, 4600
▁Instagram 4601
▁solve 4602
▁Ze 4603
▁everyday 4604
bla 4605
eng 4606
ough 4607
84 4608
?" 4609
rely 4610
TH 4611
lang 4612
82 4613
▁removal 4614
ală 4615
▁circumstances 4616
ente 4617
▁lieu 4618
▁2016. 4619
▁ales 4620
▁pure 4621
▁choosing 4622
▁Russia 4623
amp 4624
▁Santa 4625
▁happening 4626
▁crew 4627
▁lei 4628
IP 4629
RO 4630
▁resort 4631
ened 4632
MB 4633
▁styles 4634
▁dernier 4635
uck 4636
▁Guide 4637
fic 4638
▁fitness 4639
▁healthcare 4640
mol 4641
▁vis 4642
▁atmosphere 4643
▁motion 4644
▁closer 4645
▁SA 4646
▁default 4647
▁architecture 4648
iile 4649
zel 4650
cla 4651
OP 4652
▁west 4653
▁Energy 4654
▁positions 4655
▁contrast 4656
▁serves 4657
cup 4658
▁rose 4659
pers 4660
▁noise 4661
mont 4662
# 4663
lies 4664
pat 4665
IC 4666
arc 4667
▁winner 4668
tent 4669
▁Preis 4670
▁vin 4671
blo 4672
ție 4673
▁OR 4674
▁Buch 4675
▁nearby 4676
▁meetings 4677
▁48 4678
▁quand 4679
▁usual 4680
▁weitere 4681
▁caught 4682
▁issued 4683
ști 4684
upcoming 4685
▁agreed 4686
place 4687
▁Brand 4688
▁relation 4689
▁atât 4690
▁Tre 4691
▁lors 4692
▁adopt 4693
▁celui 4694
cken 4695
▁partnership 4696
?” 4697
▁ba 4698
▁ID 4699
▁consistent 4700
▁Ya 4701
▁Academy 4702
cial 4703
1% 4704
▁mise 4705
▁gute 4706
gli 4707
▁Bu 4708
▁reduction 4709
acy 4710
aga 4711
▁Sc 4712
▁Informationen 4713
▁kommen 4714
press 4715
▁bridge 4716
▁qualified 4717
position 4718
▁combat 4719
!" 4720
eva 4721
oase 4722
▁inner 4723
▁loans 4724
made 4725
▁Mexico 4726
▁formal 4727
▁fell 4728
91 4729
▁campus 4730
ienne 4731
▁framework 4732
ncing 4733
▁Para 4734
▁password 4735
▁sei 4736
▁Cross 4737
▁Ten 4738
bank 4739
▁gun 4740
ient 4741
▁usage 4742
▁(2 4743
Gra 4744
▁prea 4745
▁Als 4746
▁finance 4747
tate 4748
ition 4749
▁regulations 4750
▁Professional 4751
▁pl 4752
▁SEO 4753
▁trecut 4754
▁aller 4755
▁violence 4756
▁membership 4757
▁picked 4758
▁collected 4759
▁extended 4760
▁religious 4761
▁salle 4762
RA 4763
▁blend 4764
▁Min 4765
kal 4766
▁featuring 4767
▁researchers 4768
▁Search 4769
CE 4770
▁recognized 4771
▁semi 4772
▁exposure 4773
grew 4774
▁candidate 4775
▁shares 4776
▁edit 4777
CS 4778
▁Cl 4779
▁Enjoy 4780
▁hurt 4781
▁bottle 4782
▁Buy 4783
▁superior 4784
▁missed 4785
▁workshop 4786
action 4787
ple 4788
▁Schul 4789
▁houses 4790
▁2017, 4791
▁killed 4792
▁calendar 4793
▁Mike 4794
FA 4795
nut 4796
▁establish 4797
▁alcohol 4798
▁closely 4799
▁MA 4800
pul 4801
▁defined 4802
aires 4803
▁Shi 4804
▁plays 4805
▁sister 4806
▁cable 4807
▁desk 4808
▁apoi 4809
▁identity 4810
▁stars 4811
▁fata 4812
▁obvious 4813
▁dental 4814
AM 4815
▁sharp 4816
duc 4817
▁manufacturer 4818
!) 4819
▁objects 4820
▁Ag 4821
referred 4822
▁Ak 4823
burg 4824
▁nouveau 4825
▁Pal 4826
▁Arbeits 4827
▁personally 4828
▁Dé 4829
▁import 4830
▁justice 4831
▁photography 4832
▁portfolio 4833
56 4834
▁nouvelle 4835
▁oven 4836
▁400 4837
▁mixed 4838
▁relax 4839
▁imp 4840
▁». 4841
▁mail 4842
rage 4843
nos 4844
▁drugs 4845
▁jede 4846
▁einige 4847
▁8. 4848
ters 4849
▁electrical 4850
▁puis 4851
▁films 4852
41 4853
▁moral 4854
lage 4855
▁spaces 4856
▁Ed 4857
▁classroom 4858
▁große 4859
▁baza 4860
face 4861
▁informed 4862
▁improving 4863
▁guidance 4864
▁gallery 4865
cular 4866
53 4867
Despite 4868
▁forme 4869
▁système 4870
▁Win 4871
▁Small 4872
▁Mobile 4873
▁tape 4874
▁erhalten 4875
▁movies 4876
▁Unfortunately 4877
▁Looking 4878
▁guard 4879
▁pr 4880
▁confident 4881
BA 4882
bas 4883
hum 4884
ular 4885
▁Still 4886
▁flavor 4887
▁boost 4888
▁division 4889
ising 4890
▁monitoring 4891
▁Sen 4892
▁https 4893
mainly 4894
play 4895
▁dynamic 4896
▁coup 4897
▁carpet 4898
iner 4899
ral 4900
iser 4901
RC 4902
▁definition 4903
▁Za 4904
friendly 4905
43 4906
link 4907
▁Multi 4908
▁einmal 4909
▁stopped 4910
vel 4911
▁ongoing 4912
▁ancient 4913
take 4914
cia 4915
▁USB 4916
▁attorney 4917
▁slot 4918
▁Line 4919
rice 4920
ify 4921
ó 4922
▁flash 4923
▁extension 4924
▁Ende 4925
▁powder 4926
ească 4927
03 4928
▁normally 4929
▁pun 4930
viewed 4931
ssen 4932
ache 4933
ește 4934
▁PA 4935
FI 4936
▁Frank 4937
▁apa 4938
▁coast 4939
▁boy 4940
lim 4941
▁putin 4942
▁script 4943
▁noticed 4944
▁dealing 4945
▁Trans 4946
▁border 4947
▁reputation 4948
-2 4949
HS 4950
▁supports 4951
▁horse 4952
nik 4953
▁clothes 4954
▁Card 4955
▁relief 4956
▁Visit 4957
▁luni 4958
81 4959
qua 4960
▁Comp 4961
▁investigation 4962
▁depth 4963
▁earned 4964
▁Ren 4965
▁Dumnezeu 4966
▁Joe 4967
▁goods 4968
▁Vol 4969
▁certified 4970
▁favor 4971
▁Scott 4972
▁protest 4973
▁pace 4974
▁Angeles 4975
inch 4976
▁charged 4977
code 4978
▁convenient 4979
▁Nord 4980
▁yesterday 4981
Dacă 4982
▁Travel 4983
▁kid 4984
ction 4985
▁groupe 4986
pu 4987
bzw 4988
▁mixture 4989
▁Farm 4990
▁acces 4991
matic 4992
▁comparison 4993
reich 4994
pet 4995
▁lit 4996
▁organized 4997
just 4998
▁fellow 4999
Ver 5000
▁trends 5001
▁evaluation 5002
feld 5003
▁Pu 5004
▁equipped 5005
▁catre 5006
eck 5007
▁facing 5008
▁instrument 5009
▁pleased 5010
▁tap 5011
dom 5012
▁pump 5013
▁functional 5014
▁authority 5015
▁experiment 5016
LO 5017
▁scheduled 5018
halt 5019
▁ceiling 5020
▁Step 5021
▁orders 5022
▁speech 5023
▁stands 5024
▁disc 5025
▁rec 5026
▁Text 5027
▁banks 5028
▁oameni 5029
▁communications 5030
trag 5031
▁trail 5032
AN 5033
▁Federal 5034
▁quote 5035
▁spus 5036
▁managing 5037
▁booking 5038
▁Blog 5039
▁tank 5040
pon 5041
GE 5042
▁fiscal 5043
▁satisfaction 5044
cre 5045
▁protected 5046
▁enfants 5047
▁dort 5048
▁Mel 5049
▁turns 5050
▁savings 5051
▁voir 5052
▁Boston 5053
▁debate 5054
▁SO 5055
▁tables 5056
▁honest 5057
mate 5058
▁chart 5059
decât 5060
▁Radio 5061
54 5062
▁vol 5063
last 5064
▁tall 5065
▁Should 5066
▁sink 5067
▁Right 5068
▁male 5069
▁Modern 5070
▁indeed 5071
▁Garden 5072
▁Mod 5073
▁turning 5074
▁inches 5075
▁Police 5076
▁Pay 5077
UE 5078
mé 5079
EE 5080
▁cookies 5081
rip 5082
▁Motor 5083
▁lung 5084
▁Ap 5085
▁sustainable 5086
▁instant 5087
▁Rose 5088
▁Carolina 5089
▁Help 5090
IE 5091
▁Jersey 5092
▁Spanish 5093
▁wheel 5094
▁fishing 5095
gram 5096
▁ST 5097
▁Nov 5098
▁reporting 5099
ked 5100
▁Leben 5101
▁organisation 5102
▁tiny 5103
▁Alex 5104
▁obtained 5105
▁Acest 5106
▁dangerous 5107
utter 5108
▁rev 5109
Un 5110
▁revealed 5111
▁decade 5112
▁possibility 5113
service 5114
è 5115
▁Chief 5116
▁Durch 5117
▁cadre 5118
▁wearing 5119
sized 5120
LY 5121
▁unser 5122
▁2016, 5123
▁fail 5124
iques 5125
▁Angel 5126
▁transportation 5127
▁dates 5128
▁danger 5129
▁forum 5130
zug 5131
▁filed 5132
loc 5133
éri 5134
tribu 5135
▁entered 5136
▁porte 5137
▁arts 5138
▁reform 5139
▁Main 5140
▁dir 5141
▁approval 5142
▁juice 5143
vier 5144
▁nivel 5145
▁returns 5146
▁formed 5147
▁combine 5148
▁cours 5149
▁Standard 5150
▁certification 5151
escu 5152
▁achieved 5153
▁Model 5154
rul 5155
▁Tage 5156
▁injuries 5157
▁Sal 5158
▁expenses 5159
▁cet 5160
▁taxes 5161
diesen 5162
▁fairly 5163
▁Access 5164
wind 5165
IM 5166
ense 5167
▁hang 5168
▁citizens 5169
3% 5170
lum 5171
▁discussed 5172
AC 5173
‘ 5174
▁Sol 5175
06 5176
stellen 5177
▁participation 5178
▁Box 5179
▁bieten 5180
▁Louis 5181
▁lessons 5182
▁visible 5183
▁Cam 5184
▁Ban 5185
▁Far 5186
▁travers 5187
▁telling 5188
▁magic 5189
▁Night 5190
▁judge 5191
▁Pat 5192
▁Southern 5193
OL 5194
fully 5195
▁acestea 5196
▁Order 5197
▁facut 5198
▁Matt 5199
registr 5200
▁Yet 5201
ß 5202
▁făcut 5203
▁versions 5204
▁Force 5205
rick 5206
▁rund 5207
ike 5208
▁Young 5209
▁ski 5210
CU 5211
▁Second 5212
▁graduate 5213
▁Bible 5214
▁vary 5215
▁celebration 5216
▁risks 5217
erii 5218
rance 5219
▁MP 5220
▁tale 5221
▁Ford 5222
▁attached 5223
▁Sy 5224
▁Ly 5225
stellung 5226
▁trop 5227
▁années 5228
▁linked 5229
pit 5230
So 5231
ţe 5232
▁origin 5233
▁boys 5234
holder 5235
read 5236
▁relative 5237
▁industries 5238
making 5239
▁tun 5240
▁forced 5241
▁Welcome 5242
▁explained 5243
MP 5244
▁Three 5245
aza 5246
▁1999 5247
▁erst 5248
RS 5249
▁attractive 5250
▁visited 5251
▁nom 5252
▁drum 5253
cast 5254
ogen 5255
▁tech 5256
▁Comment 5257
▁Little 5258
▁suggested 5259
▁gar 5260
▁crack 5261
▁shooting 5262
▁Try 5263
▁Remember 5264
▁folks 5265
▁MS 5266
▁Dia 5267
3) 5268
arbeit 5269
▁pepper 5270
zz 5271
▁extreme 5272
▁extrem 5273
▁severe 5274
▁networks 5275
păr 5276
sent 5277
▁structures 5278
▁Join 5279
▁privind 5280
▁marriage 5281
▁liegt 5282
eben 5283
▁produse 5284
▁tested 5285
▁Queen 5286
▁Tax 5287
rian 5288
▁Problem 5289
izat 5290
udi 5291
▁LA 5292
▁afford 5293
▁percentage 5294
▁cute 5295
▁gorgeous 5296
▁indoor 5297
▁configuration 5298
▁immediate 5299
▁exemple 5300
▁Being 5301
▁introduction 5302
ella 5303
bare 5304
▁besser 5305
▁Put 5306
gon 5307
▁Italy 5308
▁Thus 5309
tari 5310
0.000 5311
▁Price 5312
▁Trust 5313
▁contra 5314
▁layout 5315
▁Ireland 5316
ctor 5317
atoare 5318
pra 5319
rent 5320
▁Seite 5321
▁ori 5322
spiel 5323
▁Times 5324
primarily 5325
nov 5326
▁desired 5327
▁Would 5328
PL 5329
▁originally 5330
▁Ana 5331
EN 5332
▁occasion 5333
▁grant 5334
igkeit 5335
▁scheme 5336
▁2015. 5337
izare 5338
gate 5339
▁poker 5340
pping 5341
▁Wild 5342
▁YouTube 5343
▁assume 5344
с 5345
▁rapport 5346
▁labor 5347
teur 5348
▁genre 5349
▁plat 5350
▁listening 5351
sky 5352
▁neighborhood 5353
▁3- 5354
▁Library 5355
agit 5356
▁platforms 5357
bei 5358
AB 5359
▁manufacturers 5360
▁printing 5361
▁crisis 5362
▁Smart 5363
▁drawing 5364
MO 5365
▁durable 5366
chant 5367
▁chemical 5368
▁savoir 5369
▁Max 5370
gestellt 5371
▁rural 5372
52 5373
▁invited 5374
▁fil 5375
▁Rob 5376
▁Bell 5377
▁neck 5378
pac 5379
wal 5380
▁là 5381
▁Virginia 5382
▁applicable 5383
▁abuse 5384
aide 5385
▁increases 5386
▁moi 5387
▁Non 5388
▁Produkt 5389
FC 5390
▁shops 5391
▁prendre 5392
atul 5393
▁sal 5394
▁société 5395
▁Hot 5396
rim 5397
gue 5398
▁enterprise 5399
▁33 5400
mittel 5401
ged 5402
▁formula 5403
▁spin 5404
als 5405
2% 5406
bon 5407
▁Executive 5408
▁wirklich 5409
îl 5410
1. 5411
▁Arm 5412
▁rid 5413
aries 5414
▁incident 5415
▁copii 5416
▁Charles 5417
▁meals 5418
▁wireless 5419
Ex 5420
▁Financial 5421
▁AM 5422
▁fest 5423
▁Ol 5424
oir 5425
300 5426
▁punct 5427
▁Mad 5428
▁Ali 5429
lag 5430
▁ocean 5431
▁mirror 5432
▁Additionally 5433
alia 5434
▁county 5435
▁hip 5436
dale 5437
▁Stra 5438
▁drag 5439
▁Sand 5440
▁historic 5441
ière 5442
▁examine 5443
soci 5444
ime 5445
▁Insurance 5446
▁crime 5447
▁pare 5448
▁craft 5449
▁Building 5450
mission 5451
▁Americans 5452
▁mg 5453
▁passage 5454
▁deposit 5455
▁widely 5456
nch 5457
▁Coast 5458
▁recipes 5459
▁Ziel 5460
▁duty 5461
▁gerne 5462
most 5463
▁argument 5464
▁root 5465
▁consult 5466
▁muscle 5467
▁spoke 5468
▁Cum 5469
▁orange 5470
▁reader 5471
schw 5472
▁commission 5473
histoire 5474
▁represents 5475
▁meilleur 5476
▁10. 5477
HA 5478
▁Systems 5479
▁blind 5480
▁HP 5481
▁doi 5482
▁signature 5483
▁invite 5484
▁Samsung 5485
▁liber 5486
▁letters 5487
▁primul 5488
▁losing 5489
resulting 5490
▁Computer 5491
▁poll 5492
rile 5493
TI 5494
▁cur 5495
▁fonction 5496
gat 5497
AA 5498
tiv 5499
▁Str 5500
ești 5501
▁officer 5502
reducing 5503
▁gifts 5504
▁performing 5505
▁», 5506
▁guitar 5507
▁segment 5508
▁Tar 5509
▁ultimately 5510
▁cam 5511
▁Arbeit 5512
▁accessories 5513
bad 5514
home 5515
▁clip 5516
range 5517
CM 5518
▁printed 5519
▁Pet 5520
▁attract 5521
date 5522
▁Senior 5523
▁genau 5524
num 5525
▁attended 5526
▁Turn 5527
▁History 5528
some 5529
▁describe 5530
▁Lee 5531
▁Fre 5532
▁league 5533
new 5534
tors 5535
▁storm 5536
▁Beispiel 5537
▁index 5538
▁awarded 5539
state 5540
▁1990 5541
▁ends 5542
kor 5543
far 5544
▁Page 5545
▁promotion 5546
▁weekly 5547
400 5548
iuni 5549
▁Summer 5550
▁thin 5551
▁dafür 5552
51 5553
PR 5554
▁Hy 5555
gas 5556
▁atat 5557
▁mining 5558
▁principles 5559
gent 5560
ika 5561
▁religion 5562
▁ordered 5563
▁developers 5564
▁pleasure 5565
vit 5566
mers 5567
▁Section 5568
▁por 5569
▁Name 5570
▁pink 5571
dig 5572
▁eligible 5573
▁Happy 5574
▁fo 5575
▁availability 5576
GO 5577
▁Europa 5578
▁Unit 5579
▁1000 5580
▁Berg 5581
fini 5582
▁$3 5583
iza 5584
▁promo 5585
▁Low 5586
abord 5587
äh 5588
▁Professor 5589
▁array 5590
▁hate 5591
▁recording 5592
RI 5593
▁proof 5594
lay 5595
DE 5596
▁surprised 5597
▁boxes 5598
▁noastre 5599
zie 5600
▁însă 5601
▁ajuta 5602
▁weil 5603
▁whenever 5604
shi 5605
satz 5606
▁remind 5607
▁consist 5608
▁motiv 5609
▁PS 5610
▁trois 5611
pad 5612
▁besten 5613
▁Stone 5614
itz 5615
fit 5616
▁Mountain 5617
OC 5618
▁depends 5619
▁Cover 5620
▁bags 5621
▁Bel 5622
▁Engineering 5623
▁flower 5624
▁gratuit 5625
▁smartphone 5626
stan 5627
spect 5628
SL 5629
sho 5630
▁Ser 5631
▁Perhaps 5632
▁codes 5633
▁Wind 5634
aient 5635
▁Prin 5636
▁(1) 5637
▁figures 5638
▁ausge 5639
▁episode 5640
▁Spa 5641
▁Silver 5642
▁Sky 5643
▁capabilities 5644
▁Uni 5645
▁încă 5646
TO 5647
▁Hal 5648
ghi 5649
▁sofa 5650
hard 5651
▁FOR 5652
▁Ber 5653
▁firms 5654
▁memories 5655
▁lift 5656
▁sending 5657
▁narrow 5658
▁Steve 5659
▁integration 5660
known 5661
▁nostru 5662
iţi 5663
▁Georgia 5664
▁slowly 5665
iere 5666
aka 5667
PE 5668
▁venue 5669
jar 5670
buch 5671
rad 5672
▁resistance 5673
▁stehen 5674
chin 5675
▁weak 5676
▁DVD 5677
▁bodies 5678
▁split 5679
What 5680
setzen 5681
▁loves 5682
▁kleine 5683
▁increasingly 5684
▁alert 5685
▁AC 5686
▁partir 5687
▁ratio 5688
▁keeps 5689
▁Area 5690
▁données 5691
▁flag 5692
▁NO 5693
▁hotels 5694
▁debut 5695
▁suffer 5696
▁hidden 5697
▁clothing 5698
▁household 5699
medi 5700
▁reste 5701
bro 5702
▁Bus 5703
▁Ken 5704
IR 5705
▁suffering 5706
▁publication 5707
▁Mat 5708
▁impression 5709
▁founded 5710
▁stable 5711
▁promise 5712
▁Cloud 5713
▁prison 5714
cor 5715
▁Sports 5716
▁erste 5717
shire 5718
▁recommendations 5719
▁permit 5720
▁tomorrow 5721
▁lucky 5722
▁realized 5723
▁famille 5724
▁Zealand 5725
▁wooden 5726
▁east 5727
▁Bereich 5728
während 5729
rite 5730
▁fla 5731
platz 5732
▁zero 5733
▁priority 5734
▁Airport 5735
▁Kauf 5736
▁ultimate 5737
▁chest 5738
▁tone 5739
▁Kal 5740
▁supposed 5741
▁vedere 5742
▁50% 5743
▁Ger 5744
pack 5745
▁priv 5746
▁Kit 5747
▁tent 5748
▁guidelines 5749
▁Republic 5750
including 5751
▁chief 5752
▁Living 5753
keit 5754
▁convert 5755
tail 5756
orient 5757
eigenen 5758
▁soup 5759
▁zona 5760
▁composition 5761
▁Bob 5762
▁exception 5763
▁cr 5764
▁str 5765
▁Fl 5766
AT 5767
kel 5768
▁pricing 5769
▁Mass 5770
vir 5771
leg 5772
▁rating 5773
▁Sale 5774
▁somewhere 5775
▁submitted 5776
▁Pop 5777
▁papers 5778
▁authorities 5779
▁Person 5780
▁kill 5781
▁suggestions 5782
-6 5783
▁dust 5784
taire 5785
▁recognition 5786
3. 5787
▁Mont 5788
▁produit 5789
▁transmission 5790
▁Th 5791
▁passing 5792
▁Partner 5793
▁dire 5794
▁DC 5795
▁sky 5796
▁Kitchen 5797
▁fluid 5798
▁scored 5799
▁chapter 5800
If 5801
letzten 5802
▁officers 5803
▁avem 5804
ister 5805
▁involves 5806
ico 5807
bur 5808
▁mieux 5809
▁Photo 5810
▁Cro 5811
▁professor 5812
▁besonders 5813
д 5814
▁alongside 5815
▁stored 5816
▁activ 5817
▁setup 5818
▁extract 5819
▁accent 5820
▁replaced 5821
tec 5822
▁Natur 5823
▁Pacific 5824
▁NY 5825
▁Capital 5826
▁forest 5827
incredibly 5828
▁choix 5829
▁seriously 5830
▁konnte 5831
▁2014. 5832
ensuring 5833
▁handling 5834
▁9. 5835
▁relations 5836
▁Kom 5837
▁Hol 5838
▁none 5839
rob 5840
▁Forum 5841
hour 5842
ème 5843
▁Space 5844
▁Ham 5845
rap 5846
▁Michigan 5847
km 5848
▁utilize 5849
lov 5850
▁luck 5851
lä 5852
▁healing 5853
▁neu 5854
aging 5855
▁compliance 5856
▁vertical 5857
▁FREE 5858
▁differences 5859
▁Server 5860
▁estimated 5861
schutz 5862
▁notamment 5863
▁120 5864
72 5865
▁heating 5866
late 5867
▁younger 5868
▁Intel 5869
▁salad 5870
▁commonly 5871
▁treatments 5872
▁speaker 5873
▁producing 5874
▁eggs 5875
▁Spirit 5876
▁beide 5877
▁transaction 5878
▁Machine 5879
▁Games 5880
▁niveau 5881
▁Need 5882
radi 5883
mir 5884
causing 5885
▁début 5886
▁rencontre 5887
▁threat 5888
▁enjoying 5889
Com 5890
▁Johnson 5891
▁tournament 5892
▁Micro 5893
▁Drive 5894
▁Cre 5895
▁Lebens 5896
▁categories 5897
5,000 5898
▁confirmed 5899
pli 5900
▁Francisco 5901
▁raw 5902
▁managers 5903
ţie 5904
UR 5905
▁aproape 5906
via 5907
▁engaged 5908
▁parti 5909
▁posting 5910
CO 5911
▁bois 5912
▁inch 5913
vie 5914
▁aside 5915
▁exceptional 5916
▁vintage 5917
▁Him 5918
▁expansion 5919
▁Weg 5920
▁authors 5921
▁deine 5922
▁Prime 5923
▁scan 5924
▁reg 5925
ția 5926
riv 5927
selon 5928
▁Studio 5929
▁dich 5930
▁vi 5931
▁sequence 5932
▁Four 5933
RT 5934
▁ihn 5935
▁employ 5936
umb 5937
ită 5938
▁Station 5939
▁upload 5940
▁upgrade 5941
▁exterior 5942
▁writers 5943
▁plot 5944
▁Gen 5945
TER 5946
-12 5947
http 5948
▁smell 5949
post 5950
von 5951
mili 5952
8% 5953
▁Andrew 5954
▁spun 5955
▁grass 5956
unter 5957
▁burn 5958
▁Gegen 5959
fest 5960
▁Northern 5961
▁consumption 5962
▁bird 5963
▁Miss 5964
anti 5965
▁viata 5966
bereich 5967
▁Change 5968
▁pouvoir 5969
▁demonstrate 5970
▁requirement 5971
BI 5972
ied 5973
▁spray 5974
▁calitate 5975
▁souvent 5976
▁samples 5977
▁compete 5978
ank 5979
année 5980
wick 5981
iff 5982
noi 5983
ography 5984
▁SE 5985
▁250 5986
▁wealth 5987
4% 5988
▁swimming 5989
enne 5990
Qu 5991
▁connections 5992
onne 5993
▁Way 5994
voll 5995
▁extent 5996
▁objective 5997
▁clinic 5998
NA 5999
▁Hope 6000
▁coat 6001
▁depend 6002
▁tine 6003
acc 6004
▁editor 6005
▁Jim 6006
600 6007
▁module 6008
▁deja 6009
atur 6010
▁maintaining 6011
▁hoch 6012
▁covering 6013
vielen 6014
hem 6015
▁illegal 6016
▁certificate 6017
▁collective 6018
▁blow 6019
▁programming 6020
HE 6021
▁Division 6022
▁ceux 6023
▁saved 6024
▁worst 6025
▁arms 6026
▁Officer 6027
▁association 6028
ington 6029
▁belle 6030
tting 6031
▁attacks 6032
▁vei 6033
▁gerade 6034
▁strain 6035
▁offices 6036
EM 6037
EST 6038
-8 6039
▁faculty 6040
▁Plant 6041
pla 6042
card 6043
▁loose 6044
▁PR 6045
profit 6046
▁channels 6047
ATE 6048
atic 6049
wegen 6050
word 6051
▁sehen 6052
▁nombre 6053
▁DO 6054
▁hoping 6055
▁wollen 6056
▁decat 6057
IF 6058
▁permission 6059
▁Williams 6060
▁beer 6061
▁dernière 6062
▁purchasing 6063
▁pride 6064
solv 6065
ego 6066
▁Oil 6067
▁dishes 6068
▁Baby 6069
▁Roll 6070
vez 6071
▁drept 6072
lly 6073
▁potrivit 6074
person 6075
▁interactive 6076
▁brilliant 6077
▁000 6078
▁giant 6079
▁plain 6080
▁lock 6081
▁inspection 6082
▁symbol 6083
▁Gal 6084
▁concepts 6085
▁venture 6086
▁Tr 6087
▁Color 6088
▁behalf 6089
ink 6090
atii 6091
wie 6092
▁stream 6093
▁buyers 6094
legen 6095
iness 6096
▁absolute 6097
▁council 6098
▁displayed 6099
▁Bun 6100
▁darauf 6101
▁rod 6102
▁repeat 6103
quelle 6104
lation 6105
gul 6106
▁compensation 6107
▁string 6108
▁joining 6109
▁Pra 6110
hab 6111
▁plane 6112
▁conversion 6113
▁lesson 6114
bound 6115
▁seats 6116
voc 6117
▁Disney 6118
esse 6119
▁awards 6120
▁initiative 6121
UM 6122
▁intelligence 6123
▁laser 6124
än 6125
▁generated 6126
▁allen 6127
▁Aug 6128
lini 6129
▁Update 6130
▁grab 6131
▁Bridge 6132
rock 6133
hold 6134
seinen 6135
▁false 6136
type 6137
▁outcome 6138
▁crazy 6139
▁Platz 6140
▁believed 6141
▁adjust 6142
▁entrance 6143
▁Colorado 6144
▁concentration 6145
aid 6146
▁regardless 6147
▁mici 6148
▁potentially 6149
▁Custom 6150
rag 6151
▁employer 6152
tagged 6153
▁34 6154
fro 6155
▁Pas 6156
▁AS 6157
PP 6158
stru 6159
grâce 6160
▁anyway 6161
▁streets 6162
▁Region 6163
▁newly 6164
▁assistant 6165
▁requests 6166
▁Ohio 6167
▁continuing 6168
▁îm 6169
7% 6170
▁basically 6171
gabe 6172
▁ultra 6173
pic 6174
▁jeder 6175
▁Cook 6176
▁tie 6177
▁yard 6178
▁wash 6179
▁3, 6180
▁exista 6181
▁egg 6182
▁marché 6183
kommen 6184
▁Select 6185
geben 6186
▁Joseph 6187
▁Ces 6188
▁hundred 6189
even 6190
gal 6191
800 6192
▁Jones 6193
ova 6194
▁careful 6195
▁alarm 6196
NI 6197
▁residence 6198
▁wäre 6199
▁Dor 6200
▁amounts 6201
▁mistake 6202
ates 6203
▁bune 6204
▁vegetables 6205
▁Ann 6206
logical 6207
stadt 6208
▁chances 6209
%) 6210
▁minimal 6211
▁naturally 6212
▁Geld 6213
▁Yu 6214
▁wrap 6215
rest 6216
▁legs 6217
PM 6218
▁Heart 6219
▁suspect 6220
Go 6221
▁Fil 6222
▁YOU 6223
▁victory 6224
pun 6225
▁Zo 6226
CT 6227
▁trim 6228
▁stuck 6229
ators 6230
▁Ideas 6231
▁voyage 6232
▁Restaurant 6233
▁pat 6234
▁bond 6235
▁Del 6236
▁fighting 6237
▁concerning 6238
▁etwa 6239
▁Thema 6240
▁preferred 6241
▁pitch 6242
▁Singapore 6243
▁tub 6244
FT 6245
▁Product 6246
▁applying 6247
▁Fr 6248
ţa 6249
▁iPad 6250
PD 6251
▁comun 6252
▁pie 6253
rank 6254
tron 6255
▁pest 6256
▁herself 6257
▁intense 6258
foot 6259
▁1998 6260
▁anxiety 6261
▁portable 6262
▁harm 6263
▁admit 6264
sted 6265
▁regions 6266
cie 6267
▁robust 6268
▁stem 6269
▁roles 6270
▁Latin 6271
▁Ré 6272
▁ref 6273
isme 6274
▁contribution 6275
▁forever 6276
▁frei 6277
▁mont 6278
that 6279
▁sensitive 6280
▁wider 6281
AF 6282
▁liability 6283
ţiei 6284
▁Cho 6285
aria 6286
rang 6287
▁Account 6288
▁III 6289
▁tooth 6290
▁factory 6291
▁dropped 6292
horn 6293
RP 6294
▁container 6295
fran 6296
▁lawyer 6297
▁Image 6298
HO 6299
▁incorporate 6300
▁lume 6301
GA 6302
itati 6303
autre 6304
ierten 6305
[ 6306
▁packages 6307
▁Simon 6308
▁somewhat 6309
mbo 6310
lite 6311
▁eliminate 6312
▁decrease 6313
▁geben 6314
▁approaches 6315
▁tissue 6316
▁personne 6317
ional 6318
unable 6319
▁Case 6320
hill 6321
och 6322
▁minister 6323
▁Rad 6324
▁yoga 6325
▁encounter 6326
text 6327
▁OS 6328
▁opera 6329
▁loving 6330
▁birds 6331
▁prim 6332
easca 6333
park 6334
fü 6335
▁champion 6336
▁warning 6337
DC 6338
▁yield 6339
raum 6340
▁Student 6341
▁Rev 6342
▁Fu 6343
▁intra 6344
▁proces 6345
▁margin 6346
lands 6347
04 6348
▁Steel 6349
▁besoin 6350
şti 6351
▁39 6352
▁outcomes 6353
wert 6354
3, 6355
▁hole 6356
▁Create 6357
▁hall 6358
nach 6359
▁indicate 6360
cum 6361
▁Mann 6362
▁reaction 6363
▁empty 6364
▁Sign 6365
▁pm 6366
erung 6367
▁würde 6368
▁declarat 6369
6% 6370
▁Client 6371
vil 6372
▁electricity 6373
▁75 6374
▁buna 6375
eşte 6376
▁prop 6377
▁journal 6378
▁meu 6379
▁chef 6380
▁Ever 6381
▁feelings 6382
PT 6383
▁proposal 6384
▁Its 6385
▁2013. 6386
▁Bundes 6387
▁droit 6388
▁10% 6389
gard 6390
information 6391
FE 6392
▁Dun 6393
▁Stock 6394
ație 6395
▁mag 6396
▁br 6397
▁sight 6398
phone 6399
▁Cy 6400
▁opposite 6401
ically 6402
großen 6403
▁Without 6404
espace 6405
▁chairs 6406
▁matches 6407
ateur 6408
▁Cost 6409
▁WordPress 6410
▁Opera 6411
walked 6412
▁transactions 6413
▁nuclear 6414
ways 6415
▁Oct 6416
▁bomb 6417
▁tracking 6418
▁photograph 6419
bio 6420
▁branch 6421
▁$5 6422
▁diagram 6423
▁Hard 6424
bach 6425
▁42 6426
logy 6427
▁tile 6428
▁API 6429
seront 6430
ENT 6431
▁accommodation 6432
▁fiber 6433
▁Give 6434
▁Gas 6435
▁Spain 6436
▁listing 6437
▁blocks 6438
▁constitu 6439
▁convenience 6440
▁prize 6441
▁aircraft 6442
containing 6443
▁vice 6444
▁organisations 6445
▁complicated 6446
rons 6447
▁bars 6448
était 6449
▁checking 6450
vant 6451
▁couch 6452
▁brush 6453
▁printer 6454
▁Rat 6455
▁announce 6456
▁salari 6457
▁Sk 6458
pal 6459
▁yards 6460
▁flexibility 6461
▁jamais 6462
UC 6463
▁4, 6464
▁Made 6465
▁solche 6466
▁tri 6467
▁outfit 6468
м 6469
▁encouraged 6470
trac 6471
▁genetic 6472
▁beneficial 6473
mă 6474
involving 6475
▁knee 6476
▁respective 6477
▁controlled 6478
▁Rück 6479
LC 6480
▁highlight 6481
chem 6482
▁Bis 6483
▁graphics 6484
▁posibil 6485
orul 6486
imagin 6487
▁draft 6488
shaped 6489
▁suggests 6490
uvre 6491
page 6492
▁sentiment 6493
▁loop 6494
▁Quality 6495
▁volunteers 6496
▁representation 6497
▁examination 6498
▁(2) 6499
assi 6500
▁till 6501
▁Catholic 6502
▁2020 6503
▁random 6504
tage 6505
▁baking 6506
▁Musik 6507
▁SC 6508
▁möchte 6509
▁gene 6510
▁kam 6511
▁inspire 6512
unk 6513
▁Final 6514
▁jeden 6515
▁LLC 6516
▁sistem 6517
▁stages 6518
▁texture 6519
rib 6520
lung 6521
▁breath 6522
▁hosted 6523
▁Kingdom 6524
▁politics 6525
▁mood 6526
cam 6527
▁liked 6528
▁Credit 6529
tisch 6530
▁everywhere 6531
▁poti 6532
▁fruits 6533
oire 6534
▁mesure 6535
▁Studies 6536
▁provision 6537
▁Maria 6538
▁necessarily 6539
▁Net 6540
▁scar 6541
▁tracks 6542
▁ads 6543
termin 6544
▁Yo 6545
atory 6546
itoare 6547
▁colours 6548
▁correctly 6549
▁Trade 6550
▁Week 6551
▁Premier 6552
▁designers 6553
▁BE 6554
▁desktop 6555
▁lifetime 6556
▁Kind 6557
▁divers 6558
rain 6559
▁Von 6560
▁bal 6561
▁shots 6562
▁accommodate 6563
▁Paper 6564
▁interaction 6565
▁acquisition 6566
▁neuro 6567
▁institution 6568
▁automatic 6569
▁assess 6570
▁manifest 6571
▁audit 6572
▁câte 6573
▁insight 6574
▁lange 6575
▁retirement 6576
sons 6577
▁Asian 6578
▁rail 6579
▁Awards 6580
Avec 6581
SO 6582
para 6583
▁tant 6584
▁strike 6585
▁transformation 6586
▁leicht 6587
л 6588
fat 6589
▁Qui 6590
▁chip 6591
titude 6592
▁Projekt 6593
▁statt 6594
▁findet 6595
▁telephone 6596
▁staying 6597
▁Mess 6598
▁patio 6599
▁afla 6600
▁administrative 6601
▁gemeinsam 6602
▁suppliers 6603
ark 6604
▁rice 6605
▁stretch 6606
▁compact 6607
fire 6608
в 6609
vision 6610
▁Mag 6611
▁dreams 6612
▁funny 6613
▁lässt 6614
cade 6615
▁drama 6616
▁schimb 6617
PO 6618
▁Sim 6619
▁motivation 6620
▁presents 6621
▁1997 6622
agi 6623
▁optimal 6624
▁folder 6625
stro 6626
▁Han 6627
▁Ei 6628
▁pus 6629
▁Learning 6630
oop 6631
▁Type 6632
space 6633
▁define 6634
▁plug 6635
yard 6636
▁utility 6637
über 6638
▁commun 6639
▁directed 6640
▁consent 6641
▁DNA 6642
▁statements 6643
real 6644
active 6645
school 6646
▁mic 6647
▁acestui 6648
scale 6649
▁Mid 6650
▁Chair 6651
к 6652
▁Bas 6653
▁38 6654
erin 6655
▁Everyone 6656
COM 6657
▁chronic 6658
▁doctors 6659
▁sh 6660
sport 6661
▁volunteer 6662
▁drinking 6663
▁Mas 6664
▁pursue 6665
▁exposed 6666
exe 6667
hung 6668
▁Tier 6669
▁plac 6670
▁proiect 6671
▁literally 6672
▁acolo 6673
▁User 6674
UT 6675
▁hyper 6676
▁seed 6677
▁literature 6678
▁Holy 6679
▁jeu 6680
▁licensed 6681
station 6682
▁criteria 6683
▁sufficient 6684
▁gestion 6685
▁pic 6686
▁64 6687
▁facts 6688
▁Bild 6689
obi 6690
▁nie 6691
▁Jewish 6692
bor 6693
▁1980 6694
▁Fach 6695
craft 6696
▁Pakistan 6697
▁Mos 6698
▁toilet 6699
partea 6700
case 6701
▁clock 6702
▁parc 6703
▁legislation 6704
▁icon 6705
etz 6706
ept 6707
▁Corporation 6708
▁requested 6709
▁column 6710
rier 6711
uß 6712
▁wohl 6713
tell 6714
gno 6715
▁diseases 6716
Sch 6717
▁colon 6718
▁Based 6719
▁flu 6720
▁vocal 6721
▁virus 6722
▁traveling 6723
bul 6724
т 6725
city 6726
AU 6727
wide 6728
▁solo 6729
▁functionality 6730
▁reveal 6731
sign 6732
▁closing 6733
▁peak 6734
▁practic 6735
than 6736
▁driven 6737
êtes 6738
high 6739
power 6740
▁Lin 6741
▁dose 6742
▁pocket 6743
▁Classic 6744
▁packaging 6745
▁distinct 6746
▁côté 6747
▁breast 6748
▁folosit 6749
▁drinks 6750
▁Dog 6751
ailleurs 6752
▁caz 6753
▁escape 6754
▁warranty 6755
▁pulled 6756
data 6757
▁facilitate 6758
É 6759
▁SP 6760
lant 6761
AD 6762
▁Print 6763
mond 6764
▁strange 6765
▁Hor 6766
▁Collection 6767
arm 6768
cas 6769
arrow 6770
▁carrying 6771
▁wave 6772
setzt 6773
▁construct 6774
▁acts 6775
▁Action 6776
▁Kim 6777
oxid 6778
fish 6779
▁damaged 6780
▁Greek 6781
▁belt 6782
▁Prior 6783
▁marks 6784
▁lumea 6785
▁twenty 6786
▁locul 6787
▁Army 6788
apt 6789
▁limits 6790
▁cruise 6791
▁List 6792
utilisation 6793
▁personality 6794
▁sections 6795
▁drawn 6796
▁mold 6797
▁Think 6798
▁holidays 6799
▁critic 6800
grade 6801
▁sick 6802
▁characteristics 6803
▁echipa 6804
▁Fast 6805
▁Br 6806
▁Reise 6807
teen 6808
uci 6809
!” 6810
ppe 6811
▁talked 6812
▁gap 6813
homme 6814
▁interact 6815
▁dollar 6816
▁bone 6817
▁Einsatz 6818
▁sad 6819
any 6820
tation 6821
▁Haupt 6822
iva 6823
▁Schu 6824
▁evaluate 6825
▁variant 6826
▁IS 6827
▁PRO 6828
▁vine 6829
rut 6830
▁existence 6831
-7 6832
ancy 6833
▁Want 6834
alism 6835
ranging 6836
preis 6837
All 6838
▁reception 6839
mai 6840
▁lease 6841
▁finest 6842
▁evident 6843
▁Easy 6844
▁gilt 6845
▁trips 6846
▁skilled 6847
consists 6848
front 6849
rati 6850
▁Following 6851
▁Medicine 6852
▁pune 6853
▁errors 6854
arian 6855
lib 6856
SR 6857
ML 6858
▁Safety 6859
▁clar 6860
New 6861
▁37 6862
▁Administration 6863
▁2.0 6864
▁obviously 6865
▁Mitarbeiter 6866
▁improvements 6867
▁Cut 6868
▁Natural 6869
▁arrival 6870
▁pizza 6871
eşti 6872
cept 6873
▁livre 6874
▁nombreux 6875
▁authentic 6876
▁gemacht 6877
▁broadcast 6878
▁stronger 6879
UP 6880
▁centers 6881
▁petite 6882
▁spots 6883
▁crystal 6884
▁salon 6885
▁gained 6886
▁Mus 6887
▁lens 6888
▁ihm 6889
minute 6890
▁greatly 6891
LP 6892
rait 6893
▁bid 6894
▁cit 6895
entreprise 6896
▁55 6897
▁respectively 6898
▁lo 6899
▁cons 6900
▁Energie 6901
▁OK 6902
▁grill 6903
▁heading 6904
▁sollten 6905
▁Fragen 6906
▁Poli 6907
▁studying 6908
▁développement 6909
▁foam 6910
▁1996 6911
▁disaster 6912
▁cafe 6913
▁moves 6914
focuses 6915
▁Avenue 6916
▁humans 6917
▁(3 6918
▁région 6919
▁DJ 6920
shop 6921
▁acting 6922
▁Justice 6923
▁trouve 6924
▁Estate 6925
▁strict 6926
▁talks 6927
▁mat 6928
▁completion 6929
delivering 6930
CD 6931
0% 6932
▁creativity 6933
BR 6934
▁occurred 6935
Car 6936
▁rising 6937
gger 6938
▁Gene 6939
▁workplace 6940
phy 6941
▁Bla 6942
▁trailer 6943
▁Forest 6944
▁profession 6945
▁Father 6946
flu 6947
tone 6948
▁sexual 6949
▁Map 6950
OT 6951
▁Us 6952
tôt 6953
▁Wert 6954
preparing 6955
isé 6956
▁lake 6957
eed 6958
jun 6959
▁implemented 6960
vid 6961
igne 6962
▁follows 6963
▁Eric 6964
body 6965
▁contained 6966
▁massage 6967
AV 6968
▁insa 6969
▁observed 6970
▁marque 6971
lines 6972
▁Frage 6973
largely 6974
gegeben 6975
▁colleagues 6976
pha 6977
▁representative 6978
▁shut 6979
▁secondary 6980
▁exhibit 6981
1) 6982
mid 6983
▁Due 6984
▁initiatives 6985
▁occurs 6986
lent 6987
▁façon 6988
▁iOS 6989
▁exploring 6990
▁stations 6991
nton 6992
▁Country 6993
▁shouldn 6994
▁casual 6995
-18 6996
▁maintained 6997
▁cart 6998
▁propre 6999
▁asset 7000
firm 7001
gla 7002
viv 7003
▁scientists 7004
▁Nor 7005
ites 7006
▁engaging 7007
My 7008
▁workshops 7009
ffer 7010
activité 7011
▁tension 7012
▁dual 7013
uer 7014
900 7015
SF 7016
▁kannst 7017
▁bur 7018
▁visitor 7019
▁granted 7020
▁union 7021
▁tablet 7022
▁Choose 7023
ibil 7024
▁settlement 7025
genommen 7026
▁marked 7027
▁diagnostic 7028
▁prayer 7029
▁Toronto 7030
trans 7031
▁respectiv 7032
▁2012. 7033
icul 7034
▁satisfied 7035
▁Fla 7036
▁estimate 7037
▁Agency 7038
OD 7039
▁McC 7040
bert 7041
▁seal 7042
aine 7043
▁cauza 7044
▁wallpaper 7045
▁alb 7046
▁Sound 7047
worth 7048
chten 7049
programm 7050
▁pounds 7051
▁coaching 7052
▁Furthermore 7053
▁Korea 7054
▁flour 7055
▁sommes 7056
▁Repair 7057
”) 7058
itch 7059
blu 7060
zar 7061
▁diferite 7062
▁Golf 7063
arch 7064
▁panels 7065
jan 7066
“. 7067
izarea 7068
▁golden 7069
▁flying 7070
▁museum 7071
▁equivalent 7072
▁Lang 7073
schi 7074
MI 7075
▁faci 7076
▁Rahmen 7077
▁attending 7078
′′ 7079
▁Tro 7080
▁gaming 7081
▁aujourd 7082
▁Wochen 7083
▁entering 7084
its 7085
▁Private 7086
▁Ocean 7087
▁01 7088
▁coloring 7089
ător 7090
▁flooring 7091
▁downtown 7092
rab 7093
HI 7094
▁illness 7095
▁whil 7096
▁diamond 7097
Mail 7098
▁Dream 7099
▁Golden 7100
▁rein 7101
▁hi 7102
▁expressed 7103
▁luat 7104
▁Share 7105
▁Programm 7106
▁Sales 7107
▁prof 7108
▁MO 7109
▁Short 7110
▁charm 7111
▁Cer 7112
▁Run 7113
▁tutorial 7114
oul 7115
▁Fest 7116
▁uniform 7117
aß 7118
▁pipe 7119
▁Square 7120
▁Kosten 7121
▁checked 7122
▁65 7123
▁Adam 7124
cel 7125
ello 7126
▁Res 7127
▁drain 7128
ză 7129
▁Tech 7130
▁strive 7131
cycl 7132
▁stark 7133
load 7134
▁Stat 7135
▁Rec 7136
ians 7137
▁Tin 7138
▁Agreement 7139
▁pret 7140
-9 7141
▁sentence 7142
▁Direct 7143
▁Rep 7144
▁Prozent 7145
▁invitation 7146
▁refund 7147
▁Kids 7148
stock 7149
TP 7150
▁tau 7151
from 7152
▁Ash 7153
store 7154
▁Common 7155
▁Qualität 7156
▁strongly 7157
▁importante 7158
ome 7159
▁surtout 7160
enables 7161
▁decent 7162
▁neutral 7163
▁produs 7164
bury 7165
▁Level 7166
▁interes 7167
mov 7168
▁backup 7169
même 7170
doc 7171
▁#1 7172
▁specified 7173
▁founder 7174
And 7175
isten 7176
▁lecture 7177
▁wake 7178
▁vraiment 7179
▁swing 7180
▁addresses 7181
▁Verfügung 7182
▁deadline 7183
н 7184
▁Content 7185
▁Gre 7186
▁Experience 7187
tura 7188
▁exit 7189
▁Britain 7190
▁Sunt 7191
▁documentation 7192
▁showcase 7193
▁photographs 7194
qué 7195
zin 7196
pres 7197
▁decline 7198
▁Large 7199
▁bills 7200
▁entitled 7201
▁passionate 7202
▁workout 7203
▁Again 7204
▁Haut 7205
▁guaranteed 7206
▁vue 7207
▁farmers 7208
▁admission 7209
▁manière 7210
▁reverse 7211
▁FL 7212
▁terminal 7213
GI 7214
▁speakers 7215
▁responses 7216
▁Doch 7217
▁2013, 7218
▁phones 7219
ential 7220
▁operator 7221
▁steam 7222
burn 7223
▁seul 7224
▁unusual 7225
▁educate 7226
▁Que 7227
▁believes 7228
▁succeed 7229
▁delay 7230
▁deeper 7231
▁reaching 7232
▁objectives 7233
▁temporary 7234
▁artistic 7235
▁sou 7236
▁transparent 7237
There 7238
ception 7239
▁excess 7240
▁gathering 7241
▁Save 7242
ază 7243
▁français 7244
▁laid 7245
▁modul 7246
avoir 7247
under 7248
dding 7249
▁falls 7250
▁Möglichkeit 7251
▁ceremony 7252
rai 7253
▁Bor 7254
▁Below 7255
4) 7256
▁Field 7257
wear 7258
motion 7259
print 7260
game 7261
▁Irish 7262
▁Las 7263
Among 7264
atori 7265
▁ajuns 7266
▁alive 7267
▁retour 7268
▁smoke 7269
▁math 7270
▁Ye 7271
▁Denn 7272
▁1995 7273
▁bani 7274
raz 7275
world 7276
▁engines 7277
nehmen 7278
stor 7279
▁interpret 7280
▁Ven 7281
▁cotton 7282
▁represented 7283
▁fabulous 7284
▁gender 7285
Mar 7286
vic 7287
▁newsletter 7288
sburg 7289
pond 7290
▁Carl 7291
▁bunch 7292
▁tower 7293
▁trigger 7294
▁explanation 7295
Man 7296
iunea 7297
▁announcement 7298
▁seeds 7299
▁shell 7300
▁Working 7301
viz 7302
▁Simply 7303
sub 7304
▁Village 7305
▁falling 7306
▁fits 7307
▁wichtig 7308
▁Down 7309
bble 7310
▁Orange 7311
promoting 7312
▁rapidly 7313
▁translation 7314
nig 7315
fusion 7316
kosten 7317
2) 7318
▁Express 7319
▁Sw 7320
▁frequency 7321
▁diversity 7322
MT 7323
▁bekannt 7324
lion 7325
▁cop 7326
▁Customer 7327
▁demands 7328
▁corn 7329
▁Hamburg 7330
SD 7331
▁Rome 7332
▁Pur 7333
▁stamp 7334
▁grateful 7335
RM 7336
▁Pl 7337
▁Tele 7338
▁plugin 7339
▁maxim 7340
▁Hoch 7341
igung 7342
▁Entwicklung 7343
▁File 7344
▁Eastern 7345
▁scrap 7346
▁acquired 7347
sau 7348
▁Klein 7349
▁milioane 7350
▁Stand 7351
▁childhood 7352
▁artificial 7353
▁substantial 7354
druck 7355
▁Kra 7356
▁performances 7357
▁row 7358
NT 7359
mod 7360
remained 7361
▁nimic 7362
▁Limited 7363
▁cookie 7364
▁retain 7365
▁600 7366
▁eigene 7367
▁tune 7368
NS 7369
▁dad 7370
Moreover 7371
ès 7372
▁worship 7373
▁Material 7374
▁verb 7375
ziehen 7376
lton 7377
▁boot 7378
plo 7379
CF 7380
GM 7381
▁Mix 7382
▁Front 7383
▁repairs 7384
▁proportion 7385
▁habit 7386
▁hide 7387
focusing 7388
▁Annual 7389
▁twin 7390
▁acord 7391
ehr 7392
month 7393
venir 7394
Or 7395
awa 7396
lass 7397
ffe 7398
iți 7399
NO 7400
▁scope 7401
▁lowest 7402
▁afraid 7403
▁subjects 7404
▁templates 7405
▁jos 7406
DM 7407
ensemble 7408
▁Ski 7409
DP 7410
▁grip 7411
2- 7412
▁sécurité 7413
▁mono 7414
▁controls 7415
SV 7416
install 7417
berry 7418
nial 7419
shed 7420
▁celle 7421
FR 7422
äng 7423
▁gaz 7424
êt 7425
▁viewing 7426
▁asigura 7427
bling 7428
master 7429
▁Fin 7430
VC 7431
▁patent 7432
▁Clean 7433
▁1970 7434
▁Char 7435
thi 7436
bli 7437
▁haut 7438
tica 7439
▁venit 7440
▁compatible 7441
▁hanging 7442
UN 7443
▁forth 7444
▁painted 7445
lip 7446
▁deeply 7447
▁participating 7448
▁Iran 7449
▁conventional 7450
ARE 7451
▁accuracy 7452
▁Familie 7453
▁Dir 7454
▁gehen 7455
▁moderne 7456
▁Iraq 7457
▁vente 7458
▁Donald 7459
▁passer 7460
▁mehrere 7461
▁Everything 7462
▁studied 7463
▁acquire 7464
für 7465
▁gal 7466
▁headed 7467
▁screening 7468
▁findings 7469
▁nutrition 7470
▁Secretary 7471
duct 7472
born 7473
« 7474
▁statistics 7475
▁Sydney 7476
▁Prof 7477
▁dialogue 7478
▁gather 7479
valu 7480
▁currency 7481
▁Kat 7482
gotten 7483
main 7484
▁coin 7485
▁Nick 7486
vă 7487
▁Victoria 7488
▁conclusion 7489
▁lemon 7490
▁Article 7491
▁necesar 7492
mag 7493
▁riding 7494
▁Eli 7495
▁cord 7496
wä 7497
ußerdem 7498
▁Bed 7499
▁layers 7500
▁harder 7501
▁processor 7502
▁Ils 7503
▁Edition 7504
▁Link 7505
éré 7506
▁nume 7507
▁Boy 7508
▁equally 7509
▁Regel 7510
▁hopes 7511
odor 7512
▁initially 7513
▁$4 7514
▁exemplu 7515
▁vari 7516
schl 7517
▁southern 7518
▁mein 7519
▁1994 7520
▁importantly 7521
▁succes 7522
▁developer 7523
▁lips 7524
▁attitude 7525
▁Age 7526
▁corps 7527
▁clicking 7528
▁putem 7529
▁journée 7530
boy 7531
▁injured 7532
▁watched 7533
▁flights 7534
turn 7535
▁stainless 7536
▁besondere 7537
▁Tur 7538
▁hiring 7539
▁roads 7540
ificat 7541
▁Flor 7542
▁puternic 7543
▁unexpected 7544
▁Est 7545
▁adopted 7546
▁Fox 7547
▁contributions 7548
sec 7549
IO 7550
▁santé 7551
▁Tree 7552
▁scurt 7553
▁Products 7554
▁forecast 7555
▁actor 7556
▁Gallery 7557
▁continuous 7558
▁Hat 7559
▁slip 7560
9% 7561
▁depression 7562
UI 7563
abile 7564
▁merit 7565
▁Fer 7566
▁robot 7567
▁gel 7568
▁gentle 7569
▁wanting 7570
▁understood 7571
▁terrain 7572
▁associate 7573
▁discussions 7574
▁Job 7575
spec 7576
Dabei 7577
etic 7578
gol 7579
▁20% 7580
▁grup 7581
▁Doctor 7582
verse 7583
▁victim 7584
ță 7585
▁scores 7586
▁Policy 7587
▁Anna 7588
IV 7589
▁mineral 7590
live 7591
▁grey 7592
struct 7593
▁emails 7594
▁anymore 7595
▁productivity 7596
▁Dark 7597
▁neither 7598
▁quotes 7599
LS 7600
▁Arizona 7601
night 7602
élé 7603
▁assigned 7604
▁satellite 7605
▁stability 7606
▁networking 7607
▁Transport 7608
▁persons 7609
fund 7610
▁pratique 7611
▁inca 7612
iller 7613
▁packed 7614
▁Vegas 7615
▁offre 7616
▁Bin 7617
stop 7618
mini 7619
▁jam 7620
cord 7621
▁Beautiful 7622
▁trash 7623
▁wise 7624
▁accounting 7625
▁différents 7626
▁stil 7627
suit 7628
▁vier 7629
▁permis 7630
flow 7631
▁col 7632
ected 7633
▁singer 7634
▁GmbH 7635
tics 7636
▁ser 7637
On 7638
▁insights 7639
BB 7640
▁differ 7641
▁Glass 7642
▁Six 7643
▁subscription 7644
BC 7645
▁returning 7646
kleinen 7647
▁advantages 7648
omme 7649
lus 7650
now 7651
▁Pack 7652
▁leak 7653
▁muscles 7654
▁davon 7655
mph 7656
▁temple 7657
▁Après 7658
▁Illinois 7659
▁variable 7660
▁judgment 7661
gran 7662
▁pose 7663
das 7664
ures 7665
▁Championship 7666
ebenfalls 7667
▁hydro 7668
▁angle 7669
▁5- 7670
▁gest 7671
▁Frau 7672
▁knock 7673
FS 7674
spi 7675
▁Regional 7676
lets 7677
▁Date 7678
▁Finance 7679
▁Dann 7680
Star 7681
▁Creek 7682
▁fu 7683
wohn 7684
▁anniversary 7685
▁investments 7686
▁universal 7687
▁pit 7688
ște 7689
▁lab 7690
dienst 7691
▁pal 7692
▁graphic 7693
▁bearing 7694
▁stylish 7695
▁mé 7696
▁există 7697
▁découvrir 7698
comp 7699
ridge 7700
▁heads 7701
▁consequences 7702
self 7703
fried 7704
▁inventory 7705
▁strip 7706
▁Civil 7707
bell 7708
▁neben 7709
▁Perfect 7710
▁Notre 7711
▁fraud 7712
▁employers 7713
▁Jackson 7714
▁probleme 7715
▁richtig 7716
▁Method 7717
▁tired 7718
dies 7719
▁Number 7720
rland 7721
▁latter 7722
rendre 7723
▁cameras 7724
▁euch 7725
▁Description 7726
Spec 7727
▁mile 7728
▁Challenge 7729
▁Solutions 7730
▁trusted 7731
▁einge 7732
rück 7733
▁Ober 7734
kes 7735
▁Log 7736
▁dessert 7737
▁murder 7738
▁1/2 7739
▁Provide 7740
nivelul 7741
nici 7742
▁observe 7743
▁prescription 7744
▁Sau 7745
▁genuine 7746
▁operated 7747
▁generous 7748
▁weapons 7749
▁belief 7750
▁consum 7751
▁unknown 7752
deoarece 7753
Art 7754
▁kurz 7755
▁Gut 7756
▁medication 7757
▁Mau 7758
▁divorce 7759
▁claimed 7760
halten 7761
▁Cons 7762
▁operational 7763
▁Hong 7764
VI 7765
▁Blick 7766
▁lamp 7767
pati 7768
▁4- 7769
▁interven 7770
ques 7771
▁Talk 7772
▁zeigt 7773
▁targeted 7774
round 7775
enfant 7776
▁Reg 7777
▁instruments 7778
▁calcul 7779
▁Henry 7780
▁Cla 7781
▁rack 7782
sehen 7783
▁ending 7784
▁resolve 7785
▁advise 7786
▁sociale 7787
▁cabin 7788
▁involve 7789
gă 7790
▁automat 7791
▁consultant 7792
Bu 7793
▁safely 7794
état 7795
▁pros 7796
▁lies 7797
▁Brian 7798
▁talented 7799
pus 7800
▁hub 7801
▁Ji 7802
▁sought 7803
▁energie 7804
▁möchten 7805
▁11. 7806
▁Kong 7807
▁grave 7808
▁lists 7809
tati 7810
verschiedenen 7811
dam 7812
▁charity 7813
▁breaking 7814
kins 7815
▁könnte 7816
▁appointed 7817
roc 7818
▁Senate 7819
wit 7820
▁emerging 7821
▁année 7822
▁Cool 7823
▁sensor 7824
How 7825
▁Ryan 7826
▁computers 7827
▁fault 7828
▁présent 7829
ulation 7830
▁stir 7831
lauf 7832
▁AI 7833
▁Bri 7834
▁bain 7835
▁5, 7836
schein 7837
▁weiß 7838
▁possibilities 7839
gur 7840
▁hinter 7841
Innen 7842
▁vorba 7843
fahren 7844
▁Cell 7845
univers 7846
▁Follow 7847
▁emotions 7848
▁Ministry 7849
▁curriculum 7850
Je 7851
▁gab 7852
▁sigur 7853
rise 7854
Pri 7855
▁stabil 7856
▁superb 7857
▁Oak 7858
▁rubber 7859
▁tag 7860
PG 7861
▁Heat 7862
▁thousand 7863
▁meets 7864
▁faced 7865
▁reserve 7866
cateva 7867
▁gym 7868
▁vitamin 7869
▁Rest 7870
▁Single 7871
▁Stephen 7872
▁trick 7873
DU 7874
▁telefon 7875
▁gând 7876
▁primit 7877
▁Connect 7878
▁führt 7879
▁Info 7880
▁recall 7881
▁restore 7882
lege 7883
▁franchise 7884
▁seulement 7885
reci 7886
▁2019, 7887
▁Ring 7888
▁assembly 7889
intérieur 7890
▁shade 7891
▁meaningful 7892
bag 7893
ONE 7894
▁globe 7895
▁WA 7896
▁intervention 7897
öl 7898
▁Marine 7899
▁Angebot 7900
▁align 7901
▁temperatures 7902
ifier 7903
▁Nigeria 7904
▁survive 7905
ounce 7906
▁placement 7907
▁deci 7908
▁Taylor 7909
step 7910
▁Geschichte 7911
▁Bet 7912
▁Nature 7913
▁FC 7914
▁ownership 7915
▁behaviour 7916
▁deutlich 7917
▁wondering 7918
▁cleaner 7919
uring 7920
rä 7921
▁ga 7922
ador 7923
▁artwork 7924
ologic 7925
▁eigentlich 7926
▁hell 7927
source 7928
▁gem 7929
▁boss 7930
▁arise 7931
about 7932
▁SI 7933
▁ME 7934
akt 7935
▁Style 7936
▁Körper 7937
gui 7938
▁navigate 7939
▁Meanwhile 7940
▁așa 7941
▁bulk 7942
▁directions 7943
▁brick 7944
▁Poly 7945
▁politique 7946
▁patch 7947
ра 7948
commerce 7949
▁înainte 7950
▁intelligent 7951
▁infection 7952
▁Tru 7953
▁raising 7954
tragen 7955
▁portrait 7956
▁meisten 7957
▁organize 7958
metric 7959
▁Season 7960
▁enforcement 7961
origine 7962
▁Ros 7963
▁Mount 7964
have 7965
▁romantic 7966
▁comic 7967
▁greu 7968
ET 7969
▁hook 7970
▁mort 7971
▁indicated 7972
▁7, 7973
▁Neben 7974
yer 7975
▁momentul 7976
note 7977
▁baz 7978
▁abroad 7979
nite 7980
▁bass 7981
▁norm 7982
▁É 7983
4. 7984
▁province 7985
▁merge 7986
arbeiten 7987
-20 7988
▁Nicht 7989
spo 7990
size 7991
▁assure 7992
charge 7993
▁olive 7994
▁Pot 7995
▁Figure 7996
clair 7997
▁discipline 7998
elli 7999
▁tackle 8000
▁buyer 8001
▁loud 8002
▁180 8003
▁căt 8004
▁Palm 8005
away 8006
▁Mother 8007
onia 8008
▁Protection 8009
auto 8010
▁Version 8011
▁Nice 8012
▁12. 8013
▁0, 8014
ATION 8015
▁Produkte 8016
▁tube 8017
▁Houston 8018
chu 8019
pas 8020
▁Ele 8021
▁mountains 8022
PH 8023
▁languages 8024
▁servicii 8025
▁Stay 8026
fil 8027
▁propos 8028
▁coll 8029
▁mor 8030
▁arrange 8031
▁sorry 8032
▁instruction 8033
▁holes 8034
letting 8035
▁wa 8036
▁Feb 8037
omb 8038
▁prise 8039
VO 8040
week 8041
▁Event 8042
▁AT 8043
ket 8044
haft 8045
▁hits 8046
foli 8047
this 8048
GP 8049
▁Pin 8050
▁Stein 8051
thing 8052
▁emphasis 8053
▁Mur 8054
▁Bag 8055
cons 8056
tons 8057
lash 8058
▁Grant 8059
▁pris 8060
▁bună 8061
▁buc 8062
▁passe 8063
▁jewelry 8064
iens 8065
▁forma 8066
▁Med 8067
laufen 8068
▁hunt 8069
stayed 8070
party 8071
▁fra 8072
▁scenes 8073
▁absorb 8074
▁abilities 8075
lug 8076
▁Sarah 8077
mpf 8078
▁fle 8079
accès 8080
▁solicit 8081
pie 8082
▁Zum 8083
▁universe 8084
▁exists 8085
oane 8086
IVE 8087
▁2011. 8088
▁specialists 8089
▁mess 8090
fach 8091
▁Recht 8092
▁hack 8093
▁jacket 8094
HC 8095
▁substance 8096
▁signing 8097
▁allerdings 8098
▁publish 8099
▁Lab 8100
▁agenda 8101
lane 8102
stream 8103
schau 8104
▁realizat 8105
▁supplier 8106
▁moderate 8107
▁tours 8108
▁narrative 8109
ația 8110
▁maps 8111
treten 8112
▁mars 8113
▁moon 8114
rose 8115
▁exp 8116
zahl 8117
psych 8118
▁gehört 8119
▁bound 8120
▁submission 8121
▁clubs 8122
Am 8123
tenir 8124
▁boast 8125
▁boards 8126
▁Geschäfts 8127
zing 8128
wort 8129
lid 8130
▁contractor 8131
▁donner 8132
▁coupon 8133
adresse 8134
colo 8135
▁perception 8136
NC 8137
▁abge 8138
▁cheaper 8139
▁grace 8140
▁resident 8141
kla 8142
▁bug 8143
▁Available 8144
▁BA 8145
▁Met 8146
▁climb 8147
▁expanded 8148
ying 8149
▁matching 8150
▁suffered 8151
▁employed 8152
pper 8153
▁experiencing 8154
ddy 8155
▁philosophy 8156
▁utilisé 8157
▁Jane 8158
LI 8159
▁elected 8160
▁MI 8161
▁ISO 8162
winning 8163
▁vot 8164
▁generic 8165
▁Bol 8166
▁copies 8167
▁mechanical 8168
günstig 8169
roy 8170
Astfel 8171
media 8172
▁shoulder 8173
▁directory 8174
▁banking 8175
▁mistakes 8176
▁Fran 8177
▁Jon 8178
▁spare 8179
metri 8180
▁mask 8181
▁consistently 8182
▁Columbia 8183
roid 8184
essen 8185
▁(“ 8186
▁série 8187
▁Phil 8188
▁usor 8189
▁stood 8190
▁racing 8191
▁Comme 8192
▁exceed 8193
на 8194
▁activate 8195
▁circle 8196
▁bold 8197
▁handy 8198
merely 8199
▁Edward 8200
▁contracts 8201
ê 8202
▁campaigns 8203
▁ought 8204
▁nursing 8205
▁Jr 8206
▁rarely 8207
▁Mir 8208
▁diagnosis 8209
▁Theatre 8210
▁producer 8211
Currently 8212
▁fitting 8213
▁ajunge 8214
minte 8215
▁termen 8216
▁Linux 8217
▁1- 8218
▁hätte 8219
▁Resort 8220
image 8221
▁Rod 8222
▁Fly 8223
try 8224
▁expense 8225
▁Interior 8226
▁fence 8227
▁Kontakt 8228
▁ALL 8229
VA 8230
▁Exchange 8231
ranked 8232
▁Performance 8233
prim 8234
▁basket 8235
▁Vice 8236
phan 8237
▁broke 8238
voir 8239
arg 8240
ART 8241
▁floors 8242
pression 8243
▁possession 8244
▁domaine 8245
▁valeur 8246
▁suddenly 8247
▁mild 8248
▁aflat 8249
▁Tea 8250
tritt 8251
▁Mittel 8252
▁regulatory 8253
▁spectacular 8254
fahrt 8255
GS 8256
MM 8257
▁environments 8258
▁Raum 8259
▁lay 8260
▁cré 8261
▁Selbst 8262
▁opposition 8263
two 8264
▁Clark 8265
▁Netz 8266
bald 8267
▁Innovation 8268
▁overcome 8269
quot 8270
▁Sin 8271
▁Sto 8272
▁grain 8273
▁collections 8274
▁applies 8275
mach 8276
▁wheels 8277
▁universities 8278
▁Ray 8279
lina 8280
▁arrangements 8281
▁western 8282
rous 8283
aise 8284
▁highlights 8285
▁intend 8286
aimed 8287
▁Scotland 8288
▁acestei 8289
graf 8290
duction 8291
path 8292
▁evil 8293
▁scris 8294
▁disposition 8295
▁designing 8296
zwar 8297
▁Retrieve 8298
▁aggressive 8299
▁Glen 8300
▁daher 8301
▁Quick 8302
▁recover 8303
▁prominent 8304
▁visits 8305
▁Mis 8306
▁edited 8307
▁distributed 8308
▁dés 8309
▁alter 8310
▁cooked 8311
embl 8312
Univers 8313
▁Minuten 8314
▁compris 8315
rais 8316
essentially 8317
▁rel 8318
▁appel 8319
▁trace 8320
relating 8321
dès 8322
aste 8323
▁raison 8324
▁frequent 8325
▁beds 8326
▁Miami 8327
▁vibrant 8328
▁Kam 8329
▁klar 8330
▁Tan 8331
▁vidéo 8332
▁Kur 8333
▁themes 8334
▁struggling 8335
▁Magazine 8336
maker 8337
veni 8338
▁Groß 8339
▁streaming 8340
▁analyze 8341
▁titles 8342
pier 8343
▁participant 8344
aims 8345
▁convention 8346
▁flood 8347
▁nights 8348
▁titre 8349
▁voul 8350
weit 8351
where 8352
▁Seiten 8353
▁relaxing 8354
▁piano 8355
▁Pick 8356
▁Sony 8357
▁enhanced 8358
▁visa 8359
CH 8360
▁instantly 8361
▁Fan 8362
▁diabetes 8363
▁popul 8364
Ang 8365
▁Ask 8366
cate 8367
▁simplu 8368
nahme 8369
▁dentist 8370
ubi 8371
article 8372
▁graph 8373
▁rival 8374
jahr 8375
▁bloc 8376
fern 8377
▁dispar 8378
▁servers 8379
▁patru 8380
▁Within 8381
▁situated 8382
▁HR 8383
▁leaf 8384
▁curs 8385
antes 8386
lux 8387
▁1993 8388
stance 8389
▁northern 8390
lves 8391
▁contractors 8392
▁dimensions 8393
▁rolling 8394
▁automobile 8395
▁cru 8396
▁displays 8397
web 8398
had 8399
▁Never 8400
▁2- 8401
vine 8402
▁Wahl 8403
▁Markt 8404
▁Double 8405
▁acknowledge 8406
stal 8407
▁equity 8408
▁ministry 8409
▁Lor 8410
▁sud 8411
idée 8412
▁measured 8413
▁editing 8414
▁singur 8415
▁coal 8416
▁dramatic 8417
AG 8418
asca 8419
▁crash 8420
ischer 8421
▁Pla 8422
▁psycho 8423
piece 8424
▁finger 8425
▁Hollywood 8426
▁Cr 8427
▁locally 8428
▁mouse 8429
▁Base 8430
uite 8431
▁detect 8432
cea 8433
▁bull 8434
▁curve 8435
été 8436
ddle 8437
▁span 8438
WS 8439
CL 8440
▁officially 8441
▁corect 8442
▁Artikel 8443
▁customized 8444
▁intellectual 8445
▁heures 8446
schule 8447
▁investing 8448
▁parallel 8449
▁loi 8450
ările 8451
р 8452
▁bench 8453
▁principle 8454
▁Galaxy 8455
ța 8456
▁(4 8457
▁bedrooms 8458
née 8459
▁surely 8460
very 8461
stelle 8462
activ 8463
cite 8464
▁Original 8465
▁palm 8466
▁losses 8467
▁newspaper 8468
ciu 8469
▁Hold 8470
BO 8471
▁CON 8472
▁modified 8473
▁stake 8474
▁Ton 8475
▁luna 8476
▁Mind 8477
lap 8478
▁opinions 8479
▁Jordan 8480
div 8481
indi 8482
▁Story 8483
▁affiliate 8484
▁matière 8485
▁fifth 8486
▁sheets 8487
▁puțin 8488
ush 8489
geführt 8490
▁Falls 8491
legi 8492
▁auction 8493
▁cooperation 8494
▁Fee 8495
▁Daily 8496
pies 8497
▁basketball 8498
removing 8499
Besides 8500
▁Body 8501
▁AD 8502
RU 8503
ţia 8504
▁Extra 8505
▁Practice 8506
▁Jeff 8507
▁început 8508
ching 8509
▁Gift 8510
kk 8511
") 8512
▁Austin 8513
thro 8514
▁camping 8515
▁theatre 8516
école 8517
vient 8518
▁faces 8519
▁constructed 8520
▁overnight 8521
▁locale 8522
▁roots 8523
▁bu 8524
4, 8525
▁Enterprise 8526
screen 8527
▁Chef 8528
▁Along 8529
▁MD 8530
▁Supreme 8531
En 8532
▁verwendet 8533
▁processed 8534
▁vendors 8535
▁FA 8536
▁44 8537
▁beautifully 8538
▁eficient 8539
▁Wil 8540
▁Member 8541
▁damages 8542
▁mutual 8543
SN 8544
▁Dave 8545
?? 8546
stat 8547
▁tourist 8548
fie 8549
şte 8550
▁donne 8551
▁shadow 8552
▁dough 8553
▁Gro 8554
▁Mah 8555
RF 8556
▁mechanism 8557
▁2011, 8558
▁Alter 8559
▁opposed 8560
▁Fri 8561
▁remarkable 8562
oral 8563
▁verschiedene 8564
▁difficulty 8565
▁Application 8566
▁Hay 8567
▁continua 8568
EP 8569
▁Pr 8570
▁Lady 8571
▁interval 8572
▁Mil 8573
▁2010. 8574
VE 8575
integr 8576
▁création 8577
weed 8578
EG 8579
▁6, 8580
▁god 8581
▁accomplish 8582
▁thoroughly 8583
2019 8584
izer 8585
▁Wal 8586
ifying 8587
▁Wohn 8588
▁Holz 8589
▁Advanced 8590
▁honey 8591
proof 8592
▁saison 8593
ându 8594
▁Kevin 8595
▁shelter 8596
▁discut 8597
▁hike 8598
ités 8599
▁boutique 8600
▁Email 8601
▁cosmetic 8602
dian 8603
▁hohe 8604
▁absence 8605
axi 8606
nah 8607
▁Frauen 8608
▁actively 8609
bind 8610
▁everybody 8611
▁controller 8612
▁1.5 8613
erau 8614
gehen 8615
▁scenario 8616
▁odd 8617
▁Ultra 8618
▁finishing 8619
▁cuts 8620
▁financing 8621
▁Chance 8622
surrounded 8623
▁joc 8624
▁shelf 8625
tief 8626
▁Sir 8627
▁Agent 8628
▁scratch 8629
2,000 8630
nutri 8631
nier 8632
▁Dur 8633
▁grid 8634
road 8635
▁pets 8636
stud 8637
OM 8638
Die 8639
▁800 8640
▁arrangement 8641
▁Sri 8642
▁Patrick 8643
ava 8644
▁pension 8645
dung 8646
▁Chapter 8647
▁Property 8648
▁structural 8649
▁overview 8650
2015 8651
▁lawn 8652
▁Vin 8653
lik 8654
dus 8655
Several 8656
▁Bou 8657
▁copper 8658
▁duration 8659
inate 8660
▁podcast 8661
▁Self 8662
▁Construction 8663
achat 8664
??? 8665
▁Electric 8666
▁Mrs 8667
▁CT 8668
▁proceed 8669
▁Course 8670
▁Frei 8671
▁heavily 8672
rique 8673
version 8674
▁representatives 8675
▁tourism 8676
▁shirt 8677
▁rough 8678
▁weniger 8679
▁keyboard 8680
▁heritage 8681
kat 8682
assez 8683
▁cabinets 8684
▁Komm 8685
▁impressed 8686
▁Oregon 8687
▁Davis 8688
specialized 8689
▁gross 8690
Located 8691
ttle 8692
▁2010, 8693
chan 8694
mine 8695
▁aduce 8696
▁subsequent 8697
▁demo 8698
aba 8699
▁shock 8700
▁theater 8701
▁engineers 8702
▁feu 8703
▁Rot 8704
▁addressed 8705
▁Letter 8706
gré 8707
▁quantity 8708
▁Seit 8709
▁bacteria 8710
kg 8711
▁conservation 8712
▁entreprises 8713
▁pleasant 8714
armed 8715
dorf 8716
fact 8717
▁Much 8718
▁laugh 8719
▁blade 8720
amine 8721
▁insert 8722
▁toys 8723
▁в 8724
cell 8725
▁strengthen 8726
GR 8727
▁autor 8728
▁LI 8729
▁oamenii 8730
▁Modell 8731
▁sophisticated 8732
▁Write 8733
eți 8734
say 8735
▁nutzen 8736
▁amenities 8737
chel 8738
Unlike 8739
▁Bilder 8740
fertig 8741
PER 8742
▁apparently 8743
▁pointed 8744
lop 8745
▁commande 8746
▁NEW 8747
▁primi 8748
▁aluminum 8749
ificare 8750
open 8751
▁establishment 8752
▁blanc 8753
▁1960 8754
▁parameters 8755
schluss 8756
▁jet 8757
gam 8758
▁oral 8759
▁tons 8760
▁AL 8761
▁intention 8762
ives 8763
▁BMW 8764
gun 8765
leben 8766
▁Fresh 8767
▁tuturor 8768
▁marine 8769
mile 8770
▁alta 8771
nnen 8772
▁courts 8773
▁Hello 8774
BL 8775
▁reply 8776
environnement 8777
American 8778
▁Tell 8779
▁chic 8780
bir 8781
▁singing 8782
▁earnings 8783
▁ensemble 8784
▁($ 8785
▁Tout 8786
▁Abs 8787
▁describes 8788
▁navigation 8789
▁destul 8790
legate 8791
tral 8792
aţie 8793
▁supplied 8794
▁paar 8795
ionat 8796
9. 8797
▁41 8798
▁Track 8799
▁happiness 8800
▁Personen 8801
▁sac 8802
▁shapes 8803
eld 8804
bett 8805
tile 8806
▁divided 8807
▁13. 8808
market 8809
crafted 8810
▁periods 8811
uş 8812
▁trainer 8813
▁Licht 8814
▁advisor 8815
▁Herr 8816
▁Halloween 8817
alter 8818
▁radical 8819
▁nose 8820
▁Sat 8821
▁Mom 8822
moni 8823
▁semn 8824
vé 8825
identifie 8826
▁hatten 8827
completing 8828
▁gust 8829
▁creat 8830
ché 8831
pay 8832
▁Money 8833
IG 8834
▁Cash 8835
altă 8836
▁bekommen 8837
▁43 8838
▁supplement 8839
▁Early 8840
▁mattress 8841
▁worn 8842
rov 8843
▁pray 8844
▁beans 8845
▁passé 8846
▁facilit 8847
▁meters 8848
cke 8849
▁Villa 8850
▁Diego 8851
▁chips 8852
▁mes 8853
▁Seattle 8854
BU 8855
▁nevoi 8856
▁lets 8857
▁hopefully 8858
▁AG 8859
liable 8860
pound 8861
près 8862
arul 8863
isiert 8864
▁Expert 8865
▁particulier 8866
stoff 8867
▁interpretation 8868
După 8869
sait 8870
▁nouvelles 8871
▁Ok 8872
tap 8873
▁targets 8874
rung 8875
▁stare 8876
▁efficiently 8877
EV 8878
évit 8879
▁Moldova 8880
▁Face 8881
▁flo 8882
▁acestora 8883
▁Victor 8884
▁breed 8885
morph 8886
sley 8887
mot 8888
▁URL 8889
ellen 8890
▁resist 8891
zon 8892
ndel 8893
will 8894
▁alege 8895
▁Easter 8896
▁Bat 8897
▁Höhe 8898
▁fascinating 8899
▁Know 8900
illon 8901
flex 8902
who 8903
▁Always 8904
▁Bush 8905
ICE 8906
verein 8907
▁später 8908
▁cherch 8909
makers 8910
versus 8911
▁Clear 8912
▁Pennsylvania 8913
Dieser 8914
▁picking 8915
▁restoration 8916
▁interviews 8917
pressed 8918
nnerhalb 8919
▁connecting 8920
jou 8921
▁react 8922
▁Merci 8923
▁Phone 8924
▁1) 8925
▁victims 8926
▁Spo 8927
atului 8928
▁Harry 8929
▁Sala 8930
Pol 8931
▁Clo 8932
▁Erfolg 8933
autour 8934
▁Template 8935
▁invention 8936
▁schwer 8937
vac 8938
▁Trail 8939
▁Vietnam 8940
▁Size 8941
▁Bern 8942
▁emp 8943
▁shake 8944
▁Ave 8945
▁productive 8946
▁apple 8947
▁portal 8948
▁ceramic 8949
▁pad 8950
▁Syn 8951
Ab 8952
▁syn 8953
find 8954
▁settle 8955
▁général 8956
▁okay 8957
▁receipt 8958
orii 8959
▁Mission 8960
entrée 8961
▁besteht 8962
▁wisdom 8963
▁heraus 8964
▁balanced 8965
▁habits 8966
tang 8967
ură 8968
▁winners 8969
ç 8970
▁folosi 8971
aliment 8972
▁fiction 8973
▁Spe 8974
▁elsewhere 8975
▁dependent 8976
▁Anne 8977
▁excellence 8978
▁Feel 8979
lieb 8980
▁sectors 8981
▁expir 8982
▁surfaces 8983
▁minim 8984
▁tumor 8985
▁paragraph 8986
▁disk 8987
▁tonight 8988
▁precious 8989
▁console 8990
Th 8991
neu 8992
effective 8993
▁Republican 8994
format 8995
▁preserve 8996
▁wiring 8997
▁exercises 8998
▁pregnancy 8999
tries 9000
▁jeunes 9001
▁publishing 9002
▁nehmen 9003
▁capability 9004
▁prompt 9005
▁Further 9006
▁semaine 9007
abo 9008
▁evolution 9009
▁Sud 9010
▁frais 9011
LT 9012
▁stack 9013
▁Inside 9014
▁programmes 9015
▁passes 9016
mü 9017
▁progressive 9018
▁calculator 9019
▁Core 9020
BT 9021
core 9022
▁Moon 9023
▁tender 9024
durch 9025
▁commune 9026
▁Prince 9027
▁demonstrated 9028
▁conversations 9029
▁fri 9030
igh 9031
being 9032
pause 9033
▁Bear 9034
ayant 9035
▁Industry 9036
▁sponsor 9037
▁numele 9038
▁VA 9039
▁Sommer 9040
TB 9041
▁optional 9042
▁Landes 9043
coli 9044
empt 9045
▁Iron 9046
▁1992 9047
▁attempts 9048
halb 9049
▁photographer 9050
▁witness 9051
bru 9052
▁Ras 9053
▁burden 9054
▁kaufen 9055
▁vu 9056
▁Wedding 9057
▁Kla 9058
occasion 9059
▁keys 9060
▁oferi 9061
▁puzzle 9062
eaux 9063
▁Eco 9064
▁52 9065
▁Elizabeth 9066
▁dispose 9067
▁cluster 9068
iki 9069
▁Guys 9070
▁Economic 9071
▁apar 9072
▁ziua 9073
▁integral 9074
▁tac 9075
▁restrictions 9076
▁nerve 9077
▁Stop 9078
burger 9079
explo 9080
lö 9081
NP 9082
▁Brook 9083
▁Close 9084
▁representing 9085
▁certaine 9086
▁discovery 9087
▁rece 9088
FF 9089
▁salary 9090
▁Wolf 9091
▁deserve 9092
ţele 9093
gathered 9094
▁comply 9095
lagen 9096
ătoare 9097
▁relate 9098
▁Roger 9099
▁blame 9100
▁Jen 9101
▁army 9102
▁$10 9103
▁Cabinet 9104
Gu 9105
▁wildlife 9106
▁Memorial 9107
▁Holiday 9108
▁curat 9109
iilor 9110
▁fleet 9111
▁reviewed 9112
cet 9113
▁virtually 9114
▁Crusher 9115
▁slide 9116
▁générale 9117
▁sensation 9118
▁garlic 9119
5) 9120
▁batteries 9121
SH 9122
▁seller 9123
design 9124
5. 9125
▁Overall 9126
▁investigate 9127
max 9128
▁attach 9129
▁Future 9130
OUR 9131
▁LE 9132
▁bite 9133
tige 9134
▁twist 9135
hole 9136
▁Tony 9137
LU 9138
▁Organization 9139
▁invit 9140
▁Ant 9141
NR 9142
sorgt 9143
▁Lan 9144
▁Manchester 9145
schrift 9146
▁kg 9147
▁aroma 9148
▁Source 9149
▁permite 9150
▁Consider 9151
▁Artist 9152
▁transmit 9153
oasa 9154
▁Zen 9155
ANT 9156
▁consulting 9157
▁commence 9158
▁quilt 9159
owned 9160
▁bro 9161
▁integrate 9162
▁Ontario 9163
TF 9164
▁Study 9165
▁ensuite 9166
itatii 9167
Mon 9168
-11 9169
what 9170
▁Things 9171
▁Eye 9172
▁présente 9173
tention 9174
| 9175
stall 9176
▁beef 9177
figur 9178
▁cancel 9179
▁domeniul 9180
▁360 9181
▁sleeping 9182
▁traitement 9183
ühl 9184
▁Environmental 9185
cier 9186
▁NC 9187
pub 9188
▁addiction 9189
▁nest 9190
▁ON 9191
▁discrimin 9192
▁proved 9193
▁occasions 9194
OH 9195
▁lawyers 9196
own 9197
▁Meeting 9198
▁Industrial 9199
owed 9200
▁Cel 9201
legt 9202
ily 9203
▁wins 9204
▁strap 9205
digit 9206
▁hinaus 9207
mple 9208
▁(5 9209
▁pdf 9210
▁eco 9211
▁junior 9212
DB 9213
gelegt 9214
ION 9215
▁competitors 9216
▁Arab 9217
▁Secret 9218
▁Kunst 9219
▁worried 9220
meiner 9221
▁Magic 9222
▁groß 9223
▁travaux 9224
▁sollen 9225
▁Sciences 9226
▁athletes 9227
▁discounts 9228
kit 9229
lind 9230
▁enjoyable 9231
ground 9232
▁Tat 9233
▁passengers 9234
▁Dami 9235
▁Major 9236
watch 9237
working 9238
arrêt 9239
▁subtle 9240
▁epi 9241
▁Jahres 9242
▁cooling 9243
▁makeup 9244
jet 9245
▁Given 9246
plex 9247
▁exploit 9248
rine 9249
▁delivers 9250
▁summary 9251
▁beaches 9252
lift 9253
▁Suite 9254
▁Assistant 9255
▁taxi 9256
▁peaceful 9257
▁Mode 9258
▁Fun 9259
▁diameter 9260
▁phrase 9261
ACT 9262
▁différentes 9263
▁14. 9264
▁CE 9265
▁2) 9266
▁Nat 9267
▁delete 9268
other 9269
hang 9270
▁sujet 9271
▁precise 9272
▁Total 9273
▁chambre 9274
sati 9275
▁Metal 9276
rust 9277
▁Brazil 9278
▁hybrid 9279
ops 9280
▁electro 9281
utz 9282
▁quoi 9283
▁adoption 9284
3.5 9285
50,000 9286
veti 9287
hir 9288
▁adequate 9289
ologist 9290
torii 9291
wasser 9292
▁Authority 9293
▁donation 9294
700 9295
▁somehow 9296
▁kostenlos 9297
▁generations 9298
▁Turkey 9299
rata 9300
▁animation 9301
▁CH 9302
ending 9303
welt 9304
bac 9305
MG 9306
▁parks 9307
▁placing 9308
sort 9309
▁Bitcoin 9310
▁disorder 9311
MAN 9312
aught 9313
▁guides 9314
▁circul 9315
▁Steven 9316
rrière 9317
▁Arch 9318
▁plates 9319
MR 9320
▁cow 9321
▁integrity 9322
▁(18 9323
▁totul 9324
jack 9325
▁privire 9326
▁terme 9327
▁execution 9328
▁organism 9329
▁führen 9330
▁patron 9331
▁appreciated 9332
liant 9333
▁Solar 9334
▁vinyl 9335
▁treasure 9336
▁retro 9337
▁bout 9338
lab 9339
▁dimension 9340
called 9341
▁intern 9342
issement 9343
▁Erst 9344
▁stellen 9345
▁familia 9346
▁notion 9347
▁Could 9348
Getting 9349
▁drives 9350
▁Israeli 9351
▁nations 9352
▁duties 9353
▁personalized 9354
▁weren 9355
▁chemicals 9356
▁killing 9357
▁masa 9358
▁parce 9359
▁lady 9360
ides 9361
▁execut 9362
▁floral 9363
▁Child 9364
▁medal 9365
▁casa 9366
▁enabled 9367
12. 9368
nger 9369
▁vent 9370
▁urmă 9371
▁Herz 9372
▁Jay 9373
..... 9374
▁Kris 9375
kenn 9376
ress 9377
weight 9378
▁indicates 9379
▁mentor 9380
using 9381
▁femmes 9382
▁Jung 9383
▁Send 9384
▁seasons 9385
▁aesthetic 9386
▁Block 9387
▁babies 9388
zig 9389
edge 9390
▁alike 9391
▁immune 9392
▁magical 9393
▁Snow 9394
▁spacious 9395
▁Melbourne 9396
order 9397
▁timing 9398
▁inainte 9399
▁width 9400
bild 9401
Tra 9402
▁appliances 9403
▁dirt 9404
▁Rent 9405
responsibilities 9406
▁blogs 9407
nächsten 9408
▁argue 9409
▁Resume 9410
▁Michel 9411
▁terrible 9412
graph 9413
bird 9414
▁Simple 9415
nning 9416
▁coconut 9417
▁comprise 9418
heure 9419
▁nichts 9420
▁manufacture 9421
▁Sar 9422
green 9423
lining 9424
▁tremendous 9425
▁Wine 9426
gir 9427
▁Nothing 9428
▁Miller 9429
▁Schwe 9430
zone 9431
▁cunoscut 9432
rupt 9433
kle 9434
▁Bucuresti 9435
▁Abend 9436
▁aura 9437
▁Dance 9438
▁Wilson 9439
icide 9440
bai 9441
oriented 9442
▁celebrated 9443
schlag 9444
▁10- 9445
Unsere 9446
énergie 9447
▁qualify 9448
▁contenu 9449
▁Lauf 9450
▁einzelne 9451
▁Youth 9452
explains 9453
grat 9454
▁72 9455
labor 9456
2018 9457
▁Dank 9458
▁Hey 9459
▁refuse 9460
▁graduated 9461
▁României 9462
punkt 9463
▁regulation 9464
Bru 9465
▁Side 9466
▁sol 9467
▁extraordinary 9468
▁ging 9469
▁Creative 9470
▁expanding 9471
▁problème 9472
▁Reserve 9473
auteur 9474
sphere 9475
season 9476
frei 9477
▁8, 9478
▁filing 9479
▁Complete 9480
▁revolution 9481
▁unele 9482
/8 9483
istes 9484
backed 9485
shirt 9486
▁Details 9487
rod 9488
▁pod 9489
▁operators 9490
was 9491
hou 9492
▁Coach 9493
irii 9494
▁ordinary 9495
Institut 9496
▁Flash 9497
0- 9498
▁flavour 9499
specific 9500
▁landing 9501
▁geo 9502
▁legend 9503
vari 9504
rop 9505
▁Excel 9506
▁Flu 9507
▁intent 9508
▁Deep 9509
▁Kor 9510
▁Philadelphia 9511
▁rând 9512
▁USD 9513
laden 9514
▁Hin 9515
hap 9516
▁thorough 9517
▁oferit 9518
kind 9519
▁Cancer 9520
apo 9521
▁valve 9522
▁encouraging 9523
▁sûr 9524
shing 9525
▁49 9526
gov 9527
▁Five 9528
▁stroke 9529
▁apă 9530
▁gambling 9531
▁nord 9532
onal 9533
▁captured 9534
▁lucruri 9535
serait 9536
▁Members 9537
ital 9538
▁mounted 9539
▁opens 9540
▁Marie 9541
Tech 9542
▁wishes 9543
▁regards 9544
going 9545
Opti 9546
▁femei 9547
▁Fish 9548
▁mount 9549
▁Hunt 9550
▁probabil 9551
▁assured 9552
pho 9553
▁manufactured 9554
▁realistic 9555
ații 9556
▁Planning 9557
▁român 9558
ggy 9559
▁produces 9560
▁reminder 9561
TION 9562
▁brake 9563
▁pla 9564
▁Premium 9565
▁carb 9566
▁shine 9567
▁carrier 9568
▁poverty 9569
▁effectiveness 9570
administr 9571
▁Chamber 9572
▁suntem 9573
▁noastră 9574
▁sofort 9575
▁moisture 9576
limb 9577
entre 9578
▁SD 9579
▁BC 9580
▁selecting 9581
achieving 9582
info 9583
▁membres 9584
▁shoe 9585
▁locate 9586
▁assignment 9587
lern 9588
▁defeat 9589
▁endless 9590
▁Stunden 9591
то 9592
▁mur 9593
▁wissen 9594
aime 9595
1-2 9596
▁femme 9597
robe 9598
▁embrace 9599
▁baseball 9600
▁hunting 9601
betrieb 9602
▁gardens 9603
▁risc 9604
▁Cri 9605
best 9606
▁Audio 9607
▁intens 9608
▁Round 9609
▁fireplace 9610
▁dozen 9611
▁hospitals 9612
▁profits 9613
▁Mail 9614
obtenir 9615
▁Ross 9616
bun 9617
polar 9618
▁reflection 9619
▁fut 9620
phon 9621
deck 9622
renowned 9623
▁cate 9624
▁decorative 9625
ieri 9626
▁Tap 9627
▁Dallas 9628
rik 9629
▁pied 9630
rés 9631
ppy 9632
▁bitte 9633
▁cave 9634
▁rescue 9635
▁Hilfe 9636
▁Jason 9637
▁Nations 9638
▁profil 9639
▁Atlantic 9640
▁rub 9641
▁collaborative 9642
étude 9643
▁Workshop 9644
nez 9645
▁chacun 9646
▁Too 9647
App 9648
▁conseil 9649
▁signals 9650
▁Dead 9651
▁Austria 9652
▁slots 9653
▁Dies 9654
raj 9655
stick 9656
▁jaw 9657
▁lounge 9658
curi 9659
nem 9660
▁Cluj 9661
▁rapide 9662
▁companion 9663
▁WE 9664
▁bord 9665
ody 9666
gru 9667
▁46 9668
kra 9669
eller 9670
naire 9671
hose 9672
▁Atlanta 9673
▁violent 9674
▁imagination 9675
▁reward 9676
▁Korean 9677
▁branches 9678
▁GPS 9679
glo 9680
▁condo 9681
▁Investment 9682
▁involvement 9683
▁trap 9684
▁schön 9685
▁ofera 9686
▁unterschiedlich 9687
Net 9688
▁predict 9689
identifying 9690
▁noir 9691
kos 9692
poz 9693
▁11, 9694
▁fitted 9695
MU 9696
TT 9697
▁vrea 9698
▁wound 9699
lac 9700
▁purchases 9701
▁Cape 9702
▁Foto 9703
▁acres 9704
▁nec 9705
▁burning 9706
conf 9707
▁browse 9708
ural 9709
▁Ah 9710
▁stellt 9711
▁ratings 9712
▁Bowl 9713
▁grav 9714
titi 9715
▁prêt 9716
▁fallen 9717
▁nombreuses 9718
train 9719
ène 9720
Aceasta 9721
▁drill 9722
▁Exam 9723
▁Furniture 9724
eanu 9725
étant 9726
sville 9727
▁swim 9728
▁routes 9729
INE 9730
▁Por 9731
ither 9732
▁optim 9733
▁lua 9734
▁myth 9735
▁Bett 9736
chim 9737
▁cyber 9738
▁engineer 9739
▁exploration 9740
arranged 9741
▁aged 9742
▁beau 9743
OUT 9744
▁Minnesota 9745
tress 9746
▁Commercial 9747
▁inspiring 9748
▁Mare 9749
apa 9750
▁ignore 9751
▁gros 9752
▁measurement 9753
ager 9754
intele 9755
▁suspension 9756
▁cultures 9757
▁Wow 9758
▁pushing 9759
▁bands 9760
nage 9761
▁Math 9762
comb 9763
▁créer 9764
▁Lewis 9765
▁VI 9766
emploi 9767
▁elections 9768
▁logic 9769
▁unlike 9770
▁Matthew 9771
▁pă 9772
oxy 9773
équipe 9774
▁worden 9775
dev 9776
▁Massachusetts 9777
▁Return 9778
▁Friends 9779
▁movements 9780
chie 9781
rak 9782
▁Fit 9783
▁copil 9784
iunii 9785
▁intensive 9786
▁rug 9787
lichkeit 9788
kov 9789
▁pense 9790
pop 9791
▁closet 9792
▁prevention 9793
▁Deb 9794
▁devant 9795
▁construit 9796
▁breaks 9797
otic 9798
▁dig 9799
▁près 9800
chte 9801
▁Chat 9802
wel 9803
▁edges 9804
▁keen 9805
▁infant 9806
▁Hills 9807
▁grounds 9808
▁hab 9809
▁Mun 9810
▁references 9811
▁hearts 9812
exprim 9813
▁tratament 9814
LD 9815
ssel 9816
cover 9817
bridge 9818
▁Wein 9819
▁voiture 9820
▁Gemeinde 9821
AI 9822
▁renovation 9823
bid 9824
▁Reading 9825
▁Gor 9826
fur 9827
▁Yoga 9828
▁exclusively 9829
▁emissions 9830
ète 9831
▁glasses 9832
▁organizat 9833
▁washing 9834
▁Audi 9835
▁Labor 9836
▁legacy 9837
▁abstract 9838
▁knowledgeable 9839
▁Glo 9840
▁pregnant 9841
liter 9842
▁paintings 9843
▁tête 9844
voy 9845
▁Jacob 9846
▁dressing 9847
▁provisions 9848
bahn 9849
▁depict 9850
AW 9851
▁bleibt 9852
AND 9853
▁fünf 9854
▁hosts 9855
vas 9856
DO 9857
▁max 9858
▁contributed 9859
roz 9860
▁deschis 9861
itaire 9862
tube 9863
▁Beck 9864
▁curious 9865
▁waves 9866
▁regret 9867
FO 9868
droit 9869
rö 9870
▁Panel 9871
▁pile 9872
▁installing 9873
▁Intr 9874
nung 9875
▁Outdoor 9876
▁generator 9877
▁zahlreiche 9878
▁Third 9879
frac 9880
ovi 9881
▁Casa 9882
▁stomach 9883
▁Lincoln 9884
▁Electronic 9885
coding 9886
2017 9887
▁friendship 9888
ried 9889
но 9890
▁tail 9891
▁petits 9892
▁réseau 9893
▁churches 9894
▁marketplace 9895
▁Pool 9896
▁popularity 9897
▁sprijin 9898
▁Od 9899
▁Transfer 9900
▁fake 9901
▁9, 9902
▁weit 9903
▁relaxed 9904
pig 9905
▁Lauren 9906
gesetzt 9907
▁Clar 9908
▁unlikely 9909
color 9910
▁spouse 9911
▁facile 9912
▁Speed 9913
KE 9914
▁PO 9915
▁Channel 9916
argent 9917
▁Making 9918
▁Coll 9919
cci 9920
corresponding 9921
▁heaven 9922
ţă 9923
▁darüber 9924
acted 9925
only 9926
▁slight 9927
lian 9928
flă 9929
▁vulnerable 9930
▁creator 9931
▁protecting 9932
writing 9933
▁Ter 9934
▁barb 9935
▁dată 9936
▁Screen 9937
▁BBC 9938
Col 9939
fung 9940
▁dreptul 9941
derived 9942
▁designated 9943
▁interactions 9944
SG 9945
▁häufig 9946
▁Mega 9947
▁jazz 9948
lbs 9949
▁Manual 9950
pushed 9951
▁analytics 9952
▁lawsuit 9953
▁gray 9954
shirts 9955
▁hill 9956
▁1991 9957
▁obligations 9958
▁Dubai 9959
() 9960
▁acceptable 9961
therapist 9962
inger 9963
▁territory 9964
▁sang 9965
ät 9966
▁Zukunft 9967
TU 9968
▁horizontal 9969
▁entrepreneurs 9970
▁Eltern 9971
▁presentations 9972
▁confirmation 9973
▁technological 9974
▁1989 9975
EF 9976
ponent 9977
NET 9978
750 9979
▁desert 9980
▁contribu 9981
▁Gun 9982
▁Juli 9983
ERS 9984
▁inceput 9985
▁answered 9986
▁basement 9987
film 9988
▁taille 9989
▁survival 9990
ihnen 9991
▁Bird 9992
speed 9993
▁journalist 9994
▁Indonesia 9995
▁15. 9996
▁19. 9997
étaient 9998
▁tennis 9999
▁aproximativ 10000
▁Hans 10001
▁Remove 10002
▁cats 10003
▁calories 10004
▁limitations 10005
▁subscribe 10006
▁Dem 10007
lust 10008
▁adresa 10009
▁sais 10010
..." 10011
▁Luft 10012
DL 10013
▁estimates 10014
▁protocol 10015
▁Namen 10016
▁grands 10017
▁voter 10018
▁vacuum 10019
▁versch 10020
▁Democratic 10021
▁Books 10022
▁frames 10023
▁Bee 10024
▁helfen 10025
▁dive 10026
▁physician 10027
▁powered 10028
▁zones 10029
▁regime 10030
check 10031
11. 10032
▁plaisir 10033
▁physically 10034
▁Pul 10035
▁jardin 10036
▁Nur 10037
WC 10038
▁Lock 10039
▁économique 10040
user 10041
▁commit 10042
▁oldest 10043
▁fulfill 10044
▁nervous 10045
▁SH 10046
SK 10047
▁plein 10048
show 10049
▁disability 10050
papier 10051
▁Corp 10052
ători 10053
nţă 10054
▁overseas 10055
▁struck 10056
astic 10057
▁advised 10058
BE 10059
▁UV 10060
patient 10061
▁texte 10062
▁timely 10063
used 10064
▁occasionally 10065
▁entries 10066
underlying 10067
01. 10068
▁automated 10069
yes 10070
▁Staff 10071
▁Einzel 10072
quit 10073
▁Cela 10074
▁snap 10075
▁followers 10076
CN 10077
▁Cooper 10078
ô 10079
▁memorable 10080
▁jur 10081
▁ajutorul 10082
▁Enter 10083
Often 10084
▁dintr 10085
-30 10086
ESS 10087
▁weird 10088
▁Animal 10089
▁complement 10090
▁Bot 10091
▁darf 10092
yed 10093
▁Mul 10094
lick 10095
▁Cambridge 10096
adore 10097
▁Dutch 10098
▁Castle 10099
igi 10100
▁enemy 10101
accompanied 10102
▁teren 10103
▁ET 10104
ffle 10105
-15 10106
▁Geo 10107
▁attractions 10108
iker 10109
▁bă 10110
▁heal 10111
weisen 10112
▁spectrum 10113
meld 10114
▁eveniment 10115
arra 10116
rete 10117
▁Had 10118
looking 10119
isierung 10120
▁moyen 10121
▁gesamte 10122
▁destroy 10123
125 10124
▁suivant 10125
▁declared 10126
▁Urban 10127
▁16. 10128
▁Beg 10129
▁canal 10130
▁Pres 10131
▁geeignet 10132
▁strat 10133
UB 10134
▁Alexander 10135
cycle 10136
▁Var 10137
▁domin 10138
▁lasting 10139
terio 10140
▁Battle 10141
▁publications 10142
▁implica 10143
▁NA 10144
▁stocks 10145
Plat 10146
▁excitement 10147
▁Muslim 10148
▁Mari 10149
▁Ul 10150
nächst 10151
▁trait 10152
▁(3) 10153
▁Attorney 10154
▁Malaysia 10155
▁slab 10156
▁dam 10157
▁Bir 10158
▁sing 10159
▁Culture 10160
UD 10161
▁Mes 10162
ități 10163
▁possess 10164
enabling 10165
▁settled 10166
▁sagen 10167
▁erfolgt 10168
dog 10169
ndu 10170
ității 10171
▁Islam 10172
▁catalog 10173
▁simt 10174
tische 10175
▁Mach 10176
▁EP 10177
▁Certified 10178
▁Resources 10179
▁Past 10180
▁Termin 10181
▁lightweight 10182
▁championship 10183
gebiet 10184
▁jurisdiction 10185
▁euros 10186
▁Familien 10187
▁GT 10188
▁dvs 10189
▁nouveaux 10190
▁chill 10191
▁ridicat 10192
his 10193
▁Indi 10194
▁arrested 10195
ităţii 10196
onul 10197
appar 10198
▁Bachelor 10199
▁erfolgreich 10200
▁versatile 10201
▁nécessaire 10202
▁facial 10203
▁Bull 10204
Comm 10205
atte 10206
hom 10207
start 10208
▁roughly 10209
▁bay 10210
▁american 10211
▁Wisconsin 10212
▁Clinton 10213
appareil 10214
▁liberal 10215
▁dau 10216
ech 10217
2014 10218
▁lip 10219
▁maintenant 10220
▁Sil 10221
rben 10222
▁contents 10223
▁magnetic 10224
▁terre 10225
▁Rights 10226
lose 10227
▁crown 10228
▁oils 10229
▁entertaining 10230
▁Option 10231
▁Previous 10232
▁vrai 10233
▁Auswahl 10234
▁horses 10235
▁Author 10236
▁Writing 10237
▁travelling 10238
▁350 10239
daten 10240
zan 10241
▁sweat 10242
▁Junior 10243
markt 10244
after 10245
▁admitted 10246
▁1950 10247
▁Sche 10248
▁dorit 10249
▁transferred 10250
utilise 10251
sitz 10252
gio 10253
▁bisher 10254
RD 10255
▁Wales 10256
▁smoking 10257
dire 10258
▁seating 10259
▁constat 10260
▁Hub 10261
▁sieht 10262
▁prospect 10263
▁RO 10264
▁Wars 10265
eek 10266
▁Bring 10267
▁bleiben 10268
arri 10269
inal 10270
▁Maryland 10271
▁Process 10272
They 10273
▁Oxford 10274
▁neat 10275
▁cinema 10276
▁Ist 10277
▁vegan 10278
wall 10279
▁motive 10280
▁mature 10281
▁Dragon 10282
▁google 10283
blick 10284
▁Cod 10285
▁suffi 10286
▁terrorist 10287
Posted 10288
▁Schi 10289
▁Marc 10290
▁operates 10291
gress 10292
has 10293
sole 10294
▁Buck 10295
impl 10296
▁Ron 10297
▁handled 10298
▁Apr 10299
▁Storage 10300
▁temp 10301
▁differently 10302
▁wherever 10303
matched 10304
rios 10305
▁surprising 10306
teilen 10307
▁difficulties 10308
tab 10309
▁Leader 10310
implementing 10311
▁workforce 10312
▁bereit 10313
vig 10314
▁LOVE 10315
▁instances 10316
▁frumos 10317
▁Java 10318
▁arrest 10319
▁apparent 10320
▁hence 10321
▁entwickelt 10322
▁Fra 10323
▁prend 10324
ließ 10325
▁drawer 10326
ARD 10327
▁caring 10328
▁wollte 10329
▁vielleicht 10330
▁iconic 10331
äch 10332
abel 10333
▁génér 10334
ault 10335
▁alternatives 10336
think 10337
ро 10338
whereas 10339
erei 10340
▁Eagle 10341
situé 10342
▁laboratory 10343
▁Nutzung 10344
▁Bathroom 10345
▁loaded 10346
niste 10347
som 10348
▁aucun 10349
gebracht 10350
▁tomb 10351
▁Ty 10352
▁afaceri 10353
tex 10354
ality 10355
▁identification 10356
▁cultiv 10357
Not 10358
▁acestor 10359
▁PhD 10360
nell 10361
▁dial 10362
chro 10363
▁specifications 10364
anii 10365
▁cloth 10366
▁highway 10367
▁Vitamin 10368
▁indication 10369
80% 10370
▁Lion 10371
▁10, 10372
▁Werk 10373
▁combin 10374
▁releases 10375
LL 10376
ktor 10377
ufgrund 10378
calc 10379
▁accomplished 10380
▁los 10381
▁distant 10382
▁secteur 10383
logue 10384
▁betting 10385
elf 10386
puteti 10387
▁Moment 10388
▁scoring 10389
▁freuen 10390
▁fastest 10391
▁directors 10392
▁fame 10393
▁complaint 10394
▁Ep 10395
▁delicate 10396
annonce 10397
ext 10398
▁quit 10399
▁Cop 10400
prop 10401
365 10402
▁Say 10403
▁internationale 10404
cott 10405
▁Whatever 10406
▁admir 10407
▁bucur 10408
▁entity 10409
▁dancing 10410
▁printre 10411
▁meditation 10412
▁avis 10413
▁1988 10414
10. 10415
▁worker 10416
▁$100 10417
▁contrôle 10418
▁insist 10419
ements 10420
izate 10421
▁tied 10422
▁correspond 10423
▁apartments 10424
▁2009. 10425
▁tiles 10426
▁boots 10427
▁laundry 10428
▁Coffee 10429
▁CV 10430
▁composed 10431
atom 10432
▁shore 10433
▁marijuana 10434
plic 10435
▁Zahl 10436
depth 10437
▁Egypt 10438
▁NFL 10439
▁12, 10440
▁pollution 10441
▁Vergleich 10442
û 10443
▁nurse 10444
▁Susan 10445
▁verify 10446
▁kon 10447
▁ulei 10448
▁Sept 10449
▁Location 10450
▁frozen 10451
good 10452
▁cine 10453
forming 10454
▁Near 10455
▁Tab 10456
▁Alexandr 10457
ст 10458
CK 10459
▁loads 10460
▁disorders 10461
hip 10462
▁blessing 10463
▁vechi 10464
▁Bookmark 10465
SON 10466
books 10467
▁tropical 10468
▁Garten 10469
ôt 10470
tures 10471
▁obligation 10472
▁admin 10473
▁sélection 10474
disp 10475
▁Anyone 10476
keeper 10477
▁konnten 10478
▁existe 10479
▁Rund 10480
▁retailers 10481
folg 10482
▁urmare 10483
▁Liebe 10484
▁actors 10485
▁Druck 10486
lien 10487
sian 10488
▁partid 10489
▁loin 10490
AZ 10491
oasă 10492
▁inclusiv 10493
TD 10494
▁anului 10495
poc 10496
▁musique 10497
▁Hart 10498
Sh 10499
html 10500
▁serial 10501
țele 10502
inning 10503
▁Bureau 10504
▁rush 10505
▁deosebit 10506
▁Wort 10507
▁Thailand 10508
▁Language 10509
▁Governor 10510
▁Later 10511
rilor 10512
▁activités 10513
schaffen 10514
▁harvest 10515
▁municipal 10516
einander 10517
▁fingers 10518
▁sculpture 10519
▁Bien 10520
▁departments 10521
▁période 10522
▁jeune 10523
▁governments 10524
uter 10525
Aceste 10526
▁Deal 10527
▁Equipment 10528
nous 10529
▁gate 10530
▁meta 10531
▁stiu 10532
fold 10533
▁seule 10534
▁varied 10535
hit 10536
▁DIY 10537
▁lemn 10538
OB 10539
▁colorful 10540
▁câ 10541
▁semester 10542
▁dealer 10543
nett 10544
▁shortly 10545
▁Driver 10546
culture 10547
▁permitted 10548
▁sorts 10549
▁crop 10550
▁valoare 10551
▁analog 10552
▁excuse 10553
▁modèle 10554
When 10555
▁march 10556
haz 10557
▁minimize 10558
traction 10559
▁caracter 10560
▁modules 10561
clu 10562
ţional 10563
▁breach 10564
▁priced 10565
▁attorneys 10566
▁implant 10567
▁ANY 10568
dition 10569
▁trials 10570
▁Nas 10571
Pre 10572
lorsque 10573
plin 10574
Er 10575
▁Dom 10576
▁tire 10577
sili 10578
▁coins 10579
▁rend 10580
▁reliability 10581
▁Analysis 10582
▁trails 10583
trägt 10584
▁Kansas 10585
▁responsive 10586
▁disappear 10587
▁stakeholders 10588
▁aplica 10589
▁imi 10590
▁Laura 10591
▁Terms 10592
450 10593
▁voltage 10594
▁Gel 10595
▁qualities 10596
▁qualifi 10597
▁Mé 10598
bereit 10599
gleich 10600
▁voting 10601
▁trademark 10602
▁2.5 10603
ND 10604
▁Kelly 10605
▁weiteren 10606
▁filters 10607
▁coût 10608
jur 10609
acre 10610
▁retired 10611
▁Engine 10612
▁président 10613
ajul 10614
▁GA 10615
rät 10616
▁instructor 10617
▁Allen 10618
▁Delhi 10619
▁cure 10620
seite 10621
coming 10622
▁mixing 10623
▁Kno 10624
▁Sure 10625
▁hired 10626
▁participated 10627
Count 10628
treffen 10629
▁54 10630
▁rings 10631
▁Thor 10632
éro 10633
▁buttons 10634
▁47 10635
▁Tel 10636
▁suport 10637
▁rhythm 10638
▁Theater 10639
▁informatii 10640
hält 10641
▁ouvert 10642
fewer 10643
▁alumni 10644
▁valley 10645
tial 10646
*** 10647
kri 10648
▁accidents 10649
▁barrel 10650
mobil 10651
etti 10652
▁immigration 10653
▁poveste 10654
hren 10655
hydr 10656
▁tweet 10657
▁zip 10658
▁Bonus 10659
ordnung 10660
liber 10661
▁Navy 10662
▁agreements 10663
▁detection 10664
DF 10665
hur 10666
0.00 10667
▁07 10668
etta 10669
▁13, 10670
rolled 10671
▁injection 10672
mig 10673
wach 10674
▁choisir 10675
▁professionnels 10676
▁Tower 10677
▁neighbor 10678
deutschen 10679
▁luxurious 10680
▁walks 10681
reti 10682
▁Pad 10683
wise 10684
▁exhaust 10685
▁demonstration 10686
▁agricultural 10687
Upon 10688
▁Blu 10689
atorul 10690
amour 10691
issant 10692
▁delighted 10693
rita 10694
requiring 10695
ivity 10696
▁Unser 10697
FP 10698
fait 10699
dite 10700
kul 10701
arth 10702
▁Ker 10703
torilor 10704
stage 10705
▁HTML 10706
▁Wheel 10707
▁quelque 10708
▁Ou 10709
▁considerable 10710
▁Sco 10711
▁donations 10712
dessen 10713
▁pourquoi 10714
▁Bow 10715
▁Dupa 10716
ska 10717
hot 10718
▁drove 10719
▁oppos 10720
▁hiking 10721
▁Boot 10722
One 10723
▁guvern 10724
▁15, 10725
scheid 10726
▁Miet 10727
▁Technical 10728
▁Dal 10729
▁Metro 10730
▁Baker 10731
▁trece 10732
tained 10733
block 10734
▁wander 10735
▁penalty 10736
▁shipped 10737
▁30% 10738
group 10739
▁brothers 10740
▁comanda 10741
▁retreat 10742
▁Movie 10743
PU 10744
▁Jun 10745
▁$6 10746
▁Fal 10747
▁Palestinian 10748
▁soccer 10749
▁Autor 10750
▁chamber 10751
nement 10752
▁offense 10753
▁gig 10754
▁abandon 10755
▁Kraft 10756
▁Medicare 10757
▁soap 10758
▁Fur 10759
▁conditioning 10760
rained 10761
▁puts 10762
▁cod 10763
lassen 10764
FL 10765
▁komplett 10766
▁entscheiden 10767
▁Hour 10768
?! 10769
Stream 10770
▁Grad 10771
▁gently 10772
▁poetry 10773
▁secured 10774
oph 10775
hop 10776
handel 10777
▁besoins 10778
got 10779
▁Chrome 10780
ILL 10781
▁Schritt 10782
▁spell 10783
▁grinding 10784
▁ramp 10785
▁mama 10786
▁bottles 10787
▁canvas 10788
▁ecosystem 10789
aţii 10790
cellular 10791
▁Spin 10792
▁Discover 10793
-17 10794
▁feeding 10795
▁stops 10796
▁haute 10797
▁Entscheidung 10798
▁semble 10799
▁acele 10800
▁Walk 10801
▁joke 10802
▁Fed 10803
climat 10804
▁Lot 10805
runner 10806
▁flip 10807
▁werde 10808
▁Deck 10809
bala 10810
▁sacrifice 10811
cid 10812
him 10813
zahlen 10814
▁heater 10815
formed 10816
plus 10817
▁util 10818
rama 10819
(4) 10820
▁knife 10821
▁traditions 10822
▁dip 10823
kill 10824
▁Rich 10825
▁DI 10826
▁containers 10827
▁locuri 10828
▁continent 10829
teilung 10830
▁vreme 10831
organisation 10832
serie 10833
▁Diamond 10834
magazin 10835
▁poster 10836
▁passenger 10837
▁soldiers 10838
▁urgent 10839
▁Lip 10840
▁aşa 10841
▁BO 10842
▁somebody 10843
▁silence 10844
cop 10845
▁Burn 10846
▁stopping 10847
▁essence 10848
▁hitting 10849
▁producers 10850
▁fibre 10851
▁seasonal 10852
▁tara 10853
▁Jose 10854
▁Better 10855
▁steep 10856
Alors 10857
▁collecting 10858
vre 10859
▁disabled 10860
▁voters 10861
consuming 10862
deemed 10863
éra 10864
opération 10865
▁roller 10866
Rather 10867
▁leider 10868
▁IV 10869
▁erreichen 10870
▁charging 10871
tions 10872
tiques 10873
▁formats 10874
▁painful 10875
▁eager 10876
generation 10877
anna 10878
▁races 10879
force 10880
▁ferm 10881
▁breathing 10882
▁offen 10883
▁minds 10884
▁musste 10885
▁Vision 10886
▁Installation 10887
▁hesitate 10888
▁somit 10889
hôtel 10890
cab 10891
-16 10892
▁Visual 10893
intérêt 10894
▁apel 10895
therapy 10896
volt 10897
▁Rou 10898
▁efficace 10899
▁architectural 10900
▁privilege 10901
▁treating 10902
▁Tam 10903
tsch 10904
building 10905
▁associations 10906
▁Consumer 10907
▁Lim 10908
newest 10909
▁față 10910
▁ships 10911
lev 10912
raft 10913
▁variations 10914
▁noua 10915
▁Cab 10916
1.2 10917
▁ocazi 10918
▁recommendation 10919
titled 10920
▁invoice 10921
▁noastra 10922
kur 10923
issent 10924
base 10925
hä 10926
888 10927
▁declar 10928
▁Football 10929
▁Indeed 10930
▁weapon 10931
▁destroyed 10932
▁enormous 10933
▁blanket 10934
▁aktiv 10935
raw 10936
▁computing 10937
6) 10938
▁Dam 10939
▁confort 10940
▁Gla 10941
hardly 10942
▁annually 10943
▁destinations 10944
▁guilty 10945
▁scholarship 10946
▁harmful 10947
▁2-3 10948
▁Race 10949
▁hypo 10950
▁shorter 10951
quest 10952
uze 10953
izi 10954
OO 10955
▁Schutz 10956
▁Teilnehmer 10957
▁profiles 10958
▁sustainability 10959
▁emb 10960
▁Augen 10961
▁outdoors 10962
▁Individual 10963
▁pou 10964
▁Together 10965
HT 10966
suited 10967
▁tro 10968
▁Strom 10969
▁achievement 10970
▁Range 10971
tory 10972
▁distribute 10973
▁letzte 10974
incorporated 10975
▁Kir 10976
ruf 10977
▁disappointed 10978
▁referral 10979
flam 10980
▁excessive 10981
▁rapidement 10982
▁Rio 10983
aţia 10984
▁meuble 10985
▁2008. 10986
▁Gall 10987
▁française 10988
▁ladies 10989
ailed 10990
El 10991
▁wines 10992
▁beispielsweise 10993
▁gamme 10994
▁guided 10995
▁plin 10996
Î 10997
▁True 10998
▁Temple 10999
▁Pic 11000
permalink 11001
▁vedea 11002
▁rank 11003
▁Grill 11004
clin 11005
▁Hab 11006
▁odds 11007
▁anytime 11008
▁Thanksgiving 11009
guard 11010
▁essays 11011
▁PE 11012
▁Rechts 11013
mals 11014
achi 11015
▁Anthony 11016
▁réponse 11017
standing 11018
▁Mol 11019
▁Canon 11020
▁silk 11021
▁pourrait 11022
▁raport 11023
▁Woche 11024
fallen 11025
sting 11026
▁circulation 11027
▁skirt 11028
▁Title 11029
▁17. 11030
▁Touch 11031
▁utilizat 11032
▁Organisation 11033
▁mereu 11034
▁oxygen 11035
lique 11036
▁consume 11037
▁Barb 11038
1.1 11039
▁nicely 11040
▁psychological 11041
▁refrigerator 11042
▁fantasy 11043
▁dispute 11044
▁IBM 11045
▁Nation 11046
▁mobil 11047
▁density 11048
ske 11049
▁intimate 11050
▁tailored 11051
▁outline 11052
TN 11053
mur 11054
GC 11055
they 11056
pag 11057
▁Kultur 11058
grün 11059
voted 11060
▁donné 11061
▁Să 11062
enberg 11063
▁wi 11064
▁Francis 11065
▁Rick 11066
accord 11067
▁Zusammen 11068
▁nonprofit 11069
▁listings 11070
6, 11071
▁maximize 11072
bud 11073
▁promotional 11074
cina 11075
▁potatoes 11076
▁mot 11077
carries 11078
▁stabilit 11079
▁Door 11080
▁downloaded 11081
▁experimental 11082
HD 11083
▁parfois 11084
▁zeigen 11085
▁proposé 11086
▁Verein 11087
▁amestec 11088
▁entreprise 11089
▁PSD 11090
▁bake 11091
▁Rh 11092
▁Mehr 11093
▁purple 11094
▁recipient 11095
rare 11096
egi 11097
ancien 11098
▁risque 11099
▁mystery 11100
mac 11101
ibility 11102
▁Moore 11103
▁flavors 11104
▁trauma 11105
▁automotive 11106
▁Anyway 11107
▁simulation 11108
▁crafts 11109
▁measurements 11110
▁cour 11111
▁tard 11112
nnie 11113
▁Production 11114
▁Cleaning 11115
5, 11116
▁Islamic 11117
▁Gate 11118
bay 11119
HR 11120
▁Offer 11121
▁acceptance 11122
▁Erfahrung 11123
▁environ 11124
▁fancy 11125
▁bullet 11126
organ 11127
▁Peace 11128
▁detalii 11129
▁promised 11130
▁wellness 11131
▁satisfy 11132
▁grants 11133
accueil 11134
▁oben 11135
▁prospects 11136
▁Events 11137
2013 11138
gesehen 11139
▁£1 11140
▁handelt 11141
▁Spieler 11142
▁Virtual 11143
▁bubble 11144
▁Trend 11145
▁sistemul 11146
▁Morgan 11147
▁pole 11148
▁spielen 11149
tür 11150
SCO 11151
▁informative 11152
▁affirm 11153
▁Aqua 11154
▁AR 11155
richten 11156
▁rewards 11157
lub 11158
shot 11159
LM 11160
Up 11161
▁absolut 11162
▁Mart 11163
erweise 11164
BP 11165
▁difficile 11166
▁Document 11167
▁Sweet 11168
▁indicator 11169
▁Boden 11170
mates 11171
▁supporters 11172
▁begun 11173
▁blogging 11174
▁CL 11175
gres 11176
▁preferences 11177
▁screw 11178
▁tutor 11179
▁Additional 11180
▁Bitte 11181
utilizing 11182
▁expérience 11183
▁dur 11184
▁precisely 11185
▁janvier 11186
AGE 11187
moto 11188
▁counsel 11189
▁110 11190
nick 11191
licit 11192
technik 11193
▁collaborate 11194
▁neighbors 11195
tered 11196
▁excel 11197
▁Route 11198
steuer 11199
▁pioneer 11200
nuit 11201
▁skip 11202
▁destruction 11203
▁thesis 11204
▁libre 11205
▁petition 11206
▁steady 11207
▁medications 11208
▁audiences 11209
▁coaches 11210
aller 11211
3,000 11212
▁anger 11213
▁striking 11214
▁shades 11215
▁Sitz 11216
▁gluten 11217
▁egal 11218
ania 11219
▁defend 11220
gut 11221
▁reserves 11222
▁advocate 11223
▁Cit 11224
▁technicians 11225
▁cater 11226
leitung 11227
▁towns 11228
▁Costa 11229
▁confront 11230
mount 11231
▁nationale 11232
▁adverse 11233
▁couleur 11234
▁delight 11235
▁promises 11236
▁silent 11237
richtet 11238
▁Companies 11239
▁Charlotte 11240
▁labels 11241
▁Süd 11242
▁Honor 11243
▁complaints 11244
▁siècle 11245
▁suits 11246
▁Bath 11247
mise 11248
▁acela 11249
▁candidat 11250
Flo 11251
▁conservative 11252
DD 11253
▁changement 11254
▁login 11255
▁Fashion 11256
reichen 11257
through 11258
aki 11259
gna 11260
▁verse 11261
▁threats 11262
▁Song 11263
▁funded 11264
langen 11265
▁distribu 11266
édition 11267
▁royal 11268
▁bevor 11269
▁02 11270
straße 11271
edit 11272
▁energetic 11273
▁Carr 11274
viol 11275
▁niche 11276
avais 11277
▁backyard 11278
▁Saudi 11279
▁Zwei 11280
▁Legal 11281
accessed 11282
▁choisi 11283
▁GDP 11284
oferă 11285
hlen 11286
▁Wor 11287
▁cheer 11288
▁barely 11289
cost 11290
▁Really 11291
kol 11292
▁binding 11293
euer 11294
▁optimization 11295
▁Designer 11296
▁measuring 11297
ncy 11298
weise 11299
DER 11300
▁$7 11301
▁Anfang 11302
material 11303
▁antique 11304
▁Certificate 11305
▁modest 11306
ției 11307
▁praise 11308
▁Springs 11309
▁organiza 11310
jurul 11311
▁plumbing 11312
▁foster 11313
▁Wy 11314
▁Sab 11315
▁overwhelming 11316
▁matin 11317
▁responded 11318
▁confused 11319
▁blessed 11320
▁160 11321
▁ingredient 11322
▁confer 11323
▁Gesundheit 11324
▁bucket 11325
kraft 11326
lange 11327
▁Kopf 11328
▁Prize 11329
▁authorized 11330
▁tick 11331
▁steal 11332
Depending 11333
Depuis 11334
▁functie 11335
▁developments 11336
▁Christians 11337
▁calculated 11338
▁Leave 11339
▁Jam 11340
▁habitat 11341
▁Sorry 11342
▁oficial 11343
▁allein 11344
▁concentrate 11345
dica 11346
▁Convention 11347
illes 11348
▁fum 11349
▁Tal 11350
Europe 11351
▁attachment 11352
▁sensibil 11353
▁clue 11354
▁specialty 11355
▁Cou 11356
▁liste 11357
▁Penn 11358
TRA 11359
▁Themen 11360
▁motivated 11361
▁camere 11362
▁14, 11363
▁attendance 11364
atorii 11365
chemistry 11366
▁roofing 11367
▁Links 11368
▁trou 11369
▁trucks 11370
hilfe 11371
▁(6 11372
vapor 11373
mad 11374
▁Albert 11375
▁FIG 11376
▁Rand 11377
▁Constitution 11378
ambi 11379
▁Syria 11380
▁Fond 11381
▁gouvernement 11382
▁Active 11383
▁prints 11384
▁weigh 11385
▁Craft 11386
▁projets 11387
▁paste 11388
anci 11389
kie 11390
▁gains 11391
▁Record 11392
▁beliefs 11393
countless 11394
▁tomatoes 11395
arie 11396
▁140 11397
▁ethical 11398
objectif 11399
▁acestuia 11400
▁Bluetooth 11401
▁agriculture 11402
uré 11403
▁cale 11404
▁articol 11405
▁gum 11406
▁vendor 11407
ifié 11408
▁peer 11409
pod 11410
▁utilized 11411
▁Mü 11412
owohl 11413
hilst 11414
frame 11415
▁fridge 11416
▁query 11417
▁Survey 11418
▁Hell 11419
▁notification 11420
TR 11421
▁ultima 11422
▁radiation 11423
▁musicians 11424
CAN 11425
▁grocery 11426
▁Sicherheit 11427
▁Highway 11428
▁Break 11429
TED 11430
ön 11431
▁biological 11432
qual 11433
250 11434
▁modify 11435
▁Hit 11436
▁Iar 11437
aged 11438
...) 11439
▁contrat 11440
▁centres 11441
griff 11442
Our 11443
▁determination 11444
▁variables 11445
▁nuts 11446
échange 11447
extérieur 11448
▁suflet 11449
▁Scha 11450
stück 11451
▁Tau 11452
▁participa 11453
▁mad 11454
▁relie 11455
▁Fine 11456
▁grape 11457
▁wage 11458
▁startup 11459
▁blank 11460
▁physique 11461
▁punch 11462
▁contacts 11463
▁dezvolt 11464
cross 11465
▁TR 11466
▁gener 11467
▁indem 11468
▁Stan 11469
▁azi 11470
▁Sel 11471
▁Tot 11472
vra 11473
▁recruit 11474
▁Yeah 11475
/10 11476
▁nail 11477
▁Ky 11478
▁beloved 11479
operative 11480
▁Tickets 11481
▁tear 11482
▁amp 11483
▁04 11484
▁illustrate 11485
▁mac 11486
▁receiver 11487
atrice 11488
▁souhait 11489
▁Gewinn 11490
▁Vit 11491
roch 11492
▁arata 11493
▁Indiana 11494
child 11495
▁invested 11496
▁Excellent 11497
gori 11498
▁thermal 11499
Str 11500
▁liver 11501
miss 11502
▁utiliser 11503
▁prest 11504
2016 11505
isée 11506
▁Index 11507
▁arch 11508
▁Toyota 11509
▁YOUR 11510
▁Mexican 11511
▁gegenüber 11512
▁cannabis 11513
bis 11514
vage 11515
hall 11516
fax 11517
▁spoken 11518
▁Zimmer 11519
kauf 11520
▁couleurs 11521
▁NJ 11522
▁Heritage 11523
▁Pflege 11524
luc 11525
▁56 11526
VP 11527
▁cuvinte 11528
▁Alliance 11529
▁coco 11530
▁leverage 11531
auch 11532
▁Cart 11533
taux 11534
east 11535
▁decorating 11536
tip 11537
▁Communications 11538
ACE 11539
▁Consul 11540
▁Swiss 11541
inci 11542
▁Fact 11543
▁ajung 11544
▁airline 11545
▁kidney 11546
▁Records 11547
▁Olympic 11548
▁dried 11549
oivent 11550
▁Adobe 11551
▁powers 11552
lande 11553
▁relieve 11554
ţine 11555
▁gradually 11556
mud 11557
▁30, 11558
▁plante 11559
▁Hug 11560
▁Focus 11561
▁distinctive 11562
▁Bab 11563
tata 11564
▁Nun 11565
▁Eve 11566
▁déc 11567
▁Beitrag 11568
▁devenit 11569
driven 11570
▁offerings 11571
▁exc 11572
encies 11573
▁Neuro 11574
scher 11575
map 11576
pending 11577
▁courage 11578
axe 11579
▁Gesellschaft 11580
▁ears 11581
▁aider 11582
▁Cast 11583
fast 11584
▁departe 11585
▁oak 11586
▁batch 11587
▁Corporate 11588
▁Ost 11589
-14 11590
▁Pie 11591
▁ranking 11592
clusion 11593
▁costume 11594
▁Knight 11595
▁privat 11596
▁Engineer 11597
▁gens 11598
physics 11599
generating 11600
directement 11601
▁confidential 11602
▁poet 11603
▁monster 11604
▁suppose 11605
său 11606
▁balls 11607
▁substitute 11608
▁simultaneously 11609
▁specify 11610
wald 11611
▁collapse 11612
dessus 11613
▁vitr 11614
▁recruitment 11615
denken 11616
▁candy 11617
▁tourists 11618
dimensional 11619
conce 11620
wechsel 11621
▁passende 11622
industrie 11623
agne 11624
▁warehouse 11625
▁Jugend 11626
▁Weise 11627
▁Zone 11628
▁licence 11629
▁broker 11630
▁Rolle 11631
pton 11632
▁preference 11633
▁homeowners 11634
▁Lum 11635
▁Chairman 11636
▁Pages 11637
▁beam 11638
▁coordinate 11639
▁Tool 11640
▁complexity 11641
▁checks 11642
▁Bedroom 11643
minded 11644
▁copiii 11645
▁celebrating 11646
zimmer 11647
▁Imagine 11648
▁decoration 11649
team 11650
▁împreună 11651
▁publicly 11652
▁centuries 11653
▁Islands 11654
▁ethnic 11655
still 11656
stieg 11657
emia 11658
tags 11659
▁marche 11660
▁migration 11661
▁banner 11662
▁macro 11663
▁Edit 11664
tran 11665
ça 11666
▁recycling 11667
▁1,000 11668
▁Quelle 11669
▁Vel 11670
▁Rit 11671
▁Spaß 11672
▁Corn 11673
tracted 11674
cited 11675
▁tablets 11676
▁Display 11677
▁persoana 11678
Term 11679
▁Vancouver 11680
▁Gäste 11681
determining 11682
▁populations 11683
aison 11684
▁surgical 11685
tale 11686
ivi 11687
▁Zur 11688
esprit 11689
▁Edge 11690
dach 11691
phi 11692
▁suc 11693
▁scrie 11694
▁Ausbildung 11695
▁51 11696
ologi 11697
▁correction 11698
▁Wald 11699
▁additionally 11700
▁proche 11701
▁classical 11702
▁bringen 11703
▁(10 11704
▁Mile 11705
lace 11706
▁premi 11707
▁constitute 11708
▁bitter 11709
▁Inform 11710
▁corporations 11711
▁Lisa 11712
▁obligat 11713
Throughout 11714
▁Rs 11715
▁Hair 11716
▁supplements 11717
▁motorcycle 11718
escent 11719
▁investi 11720
▁continuously 11721
▁Essen 11722
▁precision 11723
▁deficit 11724
▁wallet 11725
▁Bürger 11726
chir 11727
9) 11728
▁Programme 11729
▁simplement 11730
MD 11731
▁rouge 11732
usion 11733
▁stove 11734
▁prospective 11735
▁corp 11736
▁impacts 11737
▁bride 11738
0.0 11739
hid 11740
▁warrant 11741
▁Ice 11742
▁sensible 11743
▁vreo 11744
spekt 11745
▁appreciation 11746
▁automation 11747
Luc 11748
teaches 11749
▁fold 11750
deutsche 11751
▁assisted 11752
▁straightforward 11753
▁mechanic 11754
observ 11755
▁Schau 11756
▁Recently 11757
kers 11758
▁Soft 11759
muni 11760
▁lie 11761
▁Fat 11762
cream 11763
▁snack 11764
▁juin 11765
▁competent 11766
▁Drug 11767
▁Row 11768
▁needle 11769
▁convey 11770
▁voie 11771
▁Hon 11772
▁ebook 11773
▁veteran 11774
▁statistical 11775
190 11776
▁munca 11777
▁venues 11778
▁Viel 11779
▁décor 11780
▁répond 11781
▁produsele 11782
ruc 11783
▁drops 11784
▁autant 11785
▁Fahrzeug 11786
▁hills 11787
ference 11788
▁Glück 11789
▁Pac 11790
▁permettr 11791
▁mouvement 11792
établissement 11793
▁Parc 11794
▁solving 11795
▁jail 11796
▁junk 11797
▁jeux 11798
▁rôle 11799
▁cache 11800
▁Answer 11801
wir 11802
option 11803
▁Tiger 11804
▁Ble 11805
Mitglied 11806
▁partial 11807
▁Mercedes 11808
tire 11809
MENT 11810
▁transit 11811
▁cineva 11812
▁Andrea 11813
▁boundaries 11814
script 11815
▁Medi 11816
schreiben 11817
▁lobby 11818
▁defendant 11819
▁sq 11820
▁forgotten 11821
stimmung 11822
hus 11823
RY 11824
▁Anderson 11825
▁Dental 11826
ject 11827
▁Nutzer 11828
▁Portland 11829
scription 11830
▁angel 11831
▁monument 11832
▁număr 11833
▁Lane 11834
▁Bai 11835
But 11836
▁calculate 11837
▁provoca 11838
▁votes 11839
RNA 11840
though 11841
spor 11842
▁connaissance 11843
▁Anwendung 11844
▁Kate 11845
lob 11846
▁Conf 11847
bung 11848
ander 11849
▁functioning 11850
▁sponsored 11851
rav 11852
▁resistant 11853
tră 11854
▁costly 11855
▁Mars 11856
▁tir 11857
▁writes 11858
▁Greg 11859
▁Question 11860
▁corporation 11861
▁lire 11862
locked 11863
8, 11864
▁sagt 11865
gaining 11866
▁Pierre 11867
verb 11868
▁Barcelona 11869
werte 11870
▁disponible 11871
▁urge 11872
▁expecting 11873
▁Girl 11874
▁unlimited 11875
watt 11876
▁Möglichkeiten 11877
▁schöne 11878
rium 11879
That 11880
▁socio 11881
▁Democrats 11882
guten 11883
▁Lou 11884
ităţi 11885
▁possibilité 11886
▁adjustable 11887
▁Salt 11888
Thr 11889
▁biseric 11890
ieux 11891
▁procur 11892
▁credits 11893
▁Netflix 11894
doi 11895
▁Jews 11896
▁Ukraine 11897
▁adevărat 11898
▁Apply 11899
▁coupons 11900
▁Detroit 11901
▁rue 11902
anumite 11903
ished 11904
▁withdrawal 11905
▁replacing 11906
catching 11907
▁climbing 11908
▁Basic 11909
▁inclus 11910
scope 11911
▁facem 11912
▁plec 11913
mäßig 11914
▁tasty 11915
▁tunnel 11916
figured 11917
gged 11918
▁conditii 11919
▁homework 11920
volle 11921
▁Gott 11922
▁95 11923
▁elect 11924
▁blast 11925
▁easiest 11926
USE 11927
concentr 11928
orial 11929
▁scroll 11930
stead 11931
▁hormone 11932
▁starter 11933
▁cald 11934
▁wax 11935
▁ridic 11936
ously 11937
maschine 11938
licher 11939
▁16, 11940
▁hassle 11941
semnat 11942
▁pub 11943
240 11944
▁kits 11945
▁Generation 11946
▁merchant 11947
▁Erd 11948
▁café 11949
hoff 11950
▁WITH 11951
▁gesch 11952
▁Editor 11953
▁treats 11954
▁harsh 11955
rome 11956
▁Foreign 11957
▁denied 11958
▁Valentine 11959
▁healthier 11960
▁readily 11961
nac 11962
▁intake 11963
▁puncte 11964
erne 11965
file 11966
▁continually 11967
door 11968
▁imediat 11969
▁accused 11970
chy 11971
▁wrapped 11972
IES 11973
▁terrace 11974
mouth 11975
▁defensive 11976
▁Luci 11977
▁significance 11978
▁2007, 11979
▁inclusion 11980
▁rotation 11981
hos 11982
▁crea 11983
üß 11984
▁Install 11985
▁dump 11986
▁informations 11987
▁Thi 11988
▁85 11989
dox 11990
track 11991
▁couples 11992
▁Assembly 11993
wagen 11994
▁Hil 11995
ières 11996
▁Gabriel 11997
▁patience 11998
▁colored 11999
▁separately 12000
▁deployment 12001
scape 12002
▁Acum 12003
▁länger 12004
▁screens 12005
▁prezenta 12006
▁obicei 12007
▁crisp 12008
▁mechanisms 12009
▁thirty 12010
▁individually 12011
▁internationally 12012
lling 12013
▁bureau 12014
▁erfahren 12015
TY 12016
PF 12017
wid 12018
sell 12019
▁Luke 12020
▁Must 12021
▁identical 12022
▁Netherlands 12023
▁investor 12024
▁squad 12025
▁21, 12026
iko 12027
▁departure 12028
ega 12029
uzi 12030
▁lasa 12031
bian 12032
▁Madrid 12033
▁Iowa 12034
▁Yellow 12035
conom 12036
▁hint 12037
NOW 12038
dress 12039
▁Stück 12040
echt 12041
rial 12042
▁Initiative 12043
▁magnificent 12044
▁pipeline 12045
▁08 12046
▁écrit 12047
KA 12048
arile 12049
▁unfortunately 12050
dose 12051
▁counts 12052
deciding 12053
WA 12054
▁doresc 12055
NY 12056
olin 12057
▁Urlaub 12058
▁alătur 12059
▁Vic 12060
▁fier 12061
EU 12062
▁triple 12063
▁compliment 12064
▁vegetable 12065
member 12066
atiei 12067
▁toxic 12068
▁converted 12069
▁Pink 12070
▁fragment 12071
presenting 12072
▁garantie 12073
▁31, 12074
▁puisqu 12075
aching 12076
▁Shan 12077
▁Affairs 12078
üsse 12079
▁CBD 12080
▁quatre 12081
▁horror 12082
▁culoare 12083
▁welcoming 12084
▁headache 12085
▁septembre 12086
▁Tür 12087
lateral 12088
▁termin 12089
▁Aid 12090
second 12091
▁Philip 12092
berries 12093
▁Slot 12094
ка 12095
▁consecutive 12096
value 12097
▁islands 12098
▁posibilitatea 12099
0.5 12100
▁Dumpster 12101
▁Gran 12102
▁restricted 12103
▁discussing 12104
cock 12105
Serie 12106
▁crushing 12107
RB 12108
▁Gy 12109
normal 12110
DT 12111
▁concurs 12112
▁Beratung 12113
▁handful 12114
▁loading 12115
▁WI 12116
▁Fitness 12117
▁RAM 12118
▁Twi 12119
adurch 12120
▁obiectiv 12121
BM 12122
▁amendment 12123
whi 12124
▁Besonder 12125
ALL 12126
▁earning 12127
▁nutrients 12128
pru 12129
▁offensive 12130
▁shelves 12131
▁încâ 12132
▁execute 12133
▁cauz 12134
exist 12135
▁Meter 12136
there 12137
▁réaliser 12138
blog 12139
▁résultats 12140
baren 12141
▁lang 12142
▁mere 12143
▁toti 12144
DN 12145
Hi 12146
▁merg 12147
▁Camera 12148
▁parfum 12149
CG 12150
posed 12151
▁proposals 12152
▁incorrect 12153
▁Denver 12154
▁noapte 12155
▁VPN 12156
▁Oklahoma 12157
horizon 12158
▁villa 12159
duce 12160
Dienst 12161
▁oversee 12162
astr 12163
brand 12164
▁Safe 12165
▁competing 12166
▁subiect 12167
▁équipe 12168
▁Dress 12169
▁Juni 12170
▁repeated 12171
2012 12172
▁départ 12173
immer 12174
▁mondial 12175
▁datelor 12176
▁surgeon 12177
▁demanding 12178
▁concluded 12179
țiile 12180
marin 12181
▁estim 12182
▁Loan 12183
sculpt 12184
▁99 12185
void 12186
▁Empire 12187
▁Brit 12188
▁véhicule 12189
▁dividend 12190
▁refused 12191
▁speaks 12192
▁Morris 12193
dict 12194
▁funeral 12195
▁Behandlung 12196
▁Revolution 12197
▁Sum 12198
einigen 12199
RES 12200
▁vite 12201
▁Captain 12202
▁assurance 12203
uga 12204
▁conserv 12205
▁therapeutic 12206
▁Sweden 12207
▁Lead 12208
ément 12209
▁53 12210
▁fraction 12211
▁magnet 12212
assurer 12213
▁Steuer 12214
▁flori 12215
▁charming 12216
▁athletic 12217
▁membri 12218
▁Sep 12219
ogue 12220
▁familie 12221
▁SW 12222
▁diagnosed 12223
RR 12224
▁Fern 12225
▁rational 12226
▁talents 12227
ziert 12228
▁chemin 12229
sheet 12230
▁outer 12231
▁Kap 12232
▁HERE 12233
▁uman 12234
▁accompany 12235
▁varieties 12236
▁sensors 12237
▁25% 12238
▁tray 12239
▁critique 12240
▁puţin 12241
▁Schüler 12242
▁repar 12243
▁overlook 12244
▁surf 12245
▁tasting 12246
bog 12247
▁Payment 12248
▁Helen 12249
▁Refer 12250
application 12251
lection 12252
▁avril 12253
▁Grace 12254
▁kau 12255
▁libraries 12256
▁closest 12257
▁coating 12258
▁suicide 12259
▁undergraduate 12260
▁stitch 12261
▁reset 12262
▁Greece 12263
▁Fred 12264
▁18. 12265
▁nuit 12266
▁lying 12267
▁cottage 12268
bone 12269
▁milieu 12270
management 12271
▁Freund 12272
▁specially 12273
veut 12274
▁necesare 12275
▁cert 12276
articul 12277
150 12278
rounded 12279
▁longue 12280
▁Quel 12281
Until 12282
▁700 12283
▁installations 12284
▁boats 12285
Fig 12286
▁cocktail 12287
▁rocks 12288
meinen 12289
entrepreneur 12290
schwarz 12291
▁diesel 12292
▁villages 12293
▁cups 12294
▁stairs 12295
▁Match 12296
Taking 12297
prin 12298
▁penal 12299
partner 12300
wave 12301
▁baie 12302
LAN 12303
fix 12304
▁surveillance 12305
▁Register 12306
oara 12307
▁Phoenix 12308
aktuellen 12309
▁livres 12310
▁entities 12311
▁Regard 12312
▁Jazz 12313
▁flame 12314
▁independence 12315
▁Adventure 12316
▁assign 12317
▁Adult 12318
kehr 12319
▁ordering 12320
▁charts 12321
▁Român 12322
bauen 12323
▁Floor 12324
▁Meet 12325
▁compromise 12326
regarded 12327
02. 12328
▁granite 12329
▁Judge 12330
opti 12331
liste 12332
▁capacité 12333
▁criticism 12334
LES 12335
▁Century 12336
▁mobility 12337
▁variation 12338
▁Utah 12339
▁seminar 12340
▁experiments 12341
midst 12342
▁Psycho 12343
▁choses 12344
▁Karl 12345
▁ruling 12346
▁Voice 12347
▁împotriv 12348
▁mesaj 12349
▁vrei 12350
fan 12351
parent 12352
▁oraș 12353
▁printable 12354
▁diver 12355
▁ochi 12356
▁teenager 12357
▁Death 12358
▁manque 12359
ască 12360
▁prob 12361
▁télé 12362
cursul 12363
pion 12364
▁dedication 12365
▁opr 12366
führung 12367
▁cognitive 12368
soft 12369
▁19, 12370
▁24- 12371
▁legitimate 12372
▁comedy 12373
▁violation 12374
▁disposal 12375
▁liegen 12376
ко 12377
▁martie 12378
▁Vas 12379
rash 12380
▁hadn 12381
▁connu 12382
▁regelmäßig 12383
▁Webseite 12384
▁failing 12385
explique 12386
▁Player 12387
vul 12388
camp 12389
▁erreicht 12390
▁tags 12391
▁headline 12392
▁banc 12393
▁Mayor 12394
trop 12395
AK 12396
▁lighter 12397
▁syndrome 12398
▁Adrian 12399
▁EUR 12400
▁Missouri 12401
▁Chan 12402
topped 12403
▁nationwide 12404
▁6- 12405
final 12406
ttes 12407
▁FO 12408
▁legi 12409
▁Hum 12410
vita 12411
▁Regen 12412
▁confusion 12413
▁valori 12414
mill 12415
did 12416
pid 12417
▁implications 12418
▁Value 12419
lângă 12420
▁véritable 12421
▁Stick 12422
zol 12423
▁ebenso 12424
west 12425
▁auszu 12426
▁adorable 12427
▁clarity 12428
▁Wash 12429
▁alien 12430
usement 12431
▁bones 12432
▁Beau 12433
▁Jet 12434
▁visibility 12435
impose 12436
food 12437
▁duce 12438
▁Format 12439
▁durability 12440
▁Prim 12441
▁mele 12442
▁dürfen 12443
▁Angebote 12444
▁discharge 12445
▁Justin 12446
▁shame 12447
▁heated 12448
ères 12449
human 12450
4.5 12451
▁lien 12452
▁Alan 12453
▁transmis 12454
▁Bul 12455
plu 12456
acul 12457
merk 12458
▁altfel 12459
deli 12460
▁Cru 12461
▁hommes 12462
aurait 12463
cca 12464
▁Path 12465
astronom 12466
▁détail 12467
▁blocked 12468
iding 12469
schä 12470
▁30- 12471
diction 12472
▁pulling 12473
▁Sample 12474
▁renewable 12475
▁Pinterest 12476
▁Tages 12477
▁shed 12478
▁hart 12479
▁serie 12480
▁documentary 12481
gebaut 12482
▁Hause 12483
share 12484
▁inflation 12485
▁gall 12486
▁adjacent 12487
jer 12488
▁Universal 12489
▁disabilities 12490
▁proposition 12491
Work 12492
▁closure 12493
▁separated 12494
▁soda 12495
▁elite 12496
appro 12497
▁acute 12498
utton 12499
▁facă 12500
▁collector 12501
▁unlock 12502
▁Alpha 12503
▁Used 12504
▁applicants 12505
▁înseamn 12506
▁inclu 12507
▁disclosure 12508
▁Fahr 12509
AST 12510
▁vivre 12511
», 12512
laud 12513
▁soir 12514
▁barrier 12515
înd 12516
▁ambition 12517
asta 12518
occupied 12519
▁Gau 12520
four 12521
▁nap 12522
iez 12523
endra 12524
gaben 12525
▁Carol 12526
▁Switzerland 12527
▁Bond 12528
▁crossing 12529
▁Palace 12530
NG 12531
▁Budget 12532
▁lid 12533
bab 12534
▁polish 12535
▁herbs 12536
▁dear 12537
▁devrai 12538
walk 12539
▁humanity 12540
▁tires 12541
égal 12542
▁bow 12543
▁debris 12544
▁keywords 12545
irk 12546
▁suspend 12547
▁pourra 12548
migran 12549
thereby 12550
▁Harris 12551
ateurs 12552
▁fal 12553
alleged 12554
noch 12555
▁observation 12556
▁București 12557
▁SQL 12558
▁Phase 12559
▁adventures 12560
▁Kol 12561
▁professionnel 12562
crit 12563
LR 12564
▁preview 12565
▁highlighted 12566
▁Stud 12567
▁labour 12568
MV 12569
click 12570
approche 12571
tian 12572
cité 12573
▁Rain 12574
typ 12575
Usually 12576
▁outlet 12577
logging 12578
▁Temperatur 12579
▁Scottish 12580
iga 12581
▁glory 12582
▁Rom 12583
zeug 12584
establishing 12585
▁imaging 12586
▁Beauty 12587
igan 12588
après 12589
Adresse 12590
cliff 12591
▁unnecessary 12592
▁slim 12593
dir 12594
▁leisure 12595
▁principale 12596
▁Viele 12597
▁2007. 12598
Hopefully 12599
cola 12600
▁Planet 12601
▁orientation 12602
▁angry 12603
MIT 12604
▁Kenya 12605
▁bless 12606
▁Fill 12607
▁compar 12608
▁curtain 12609
ţei 12610
▁Az 12611
▁Rang 12612
▁dominant 12613
race 12614
▁Target 12615
▁manually 12616
objet 12617
thrown 12618
NF 12619
durant 12620
rect 12621
▁Größe 12622
VM 12623
▁aprilie 12624
▁Welche 12625
▁verde 12626
▁Portugal 12627
▁algorithm 12628
ăț 12629
▁Grey 12630
▁cleaned 12631
▁modes 12632
▁relaxation 12633
mbr 12634
étique 12635
Her 12636
▁beta 12637
▁nobody 12638
▁aplic 12639
present 12640
emis 12641
éléments 12642
▁lately 12643
fab 12644
▁aluminiu 12645
▁vest 12646
▁statue 12647
▁publice 12648
▁merchandise 12649
▁relat 12650
git 12651
▁interne 12652
▁Tokyo 12653
chal 12654
contacted 12655
▁tras 12656
▁Clinic 12657
▁unbe 12658
▁dumneavoastra 12659
float 12660
isson 12661
▁vessel 12662
attempting 12663
▁doute 12664
▁Leadership 12665
▁sustain 12666
▁textile 12667
auer 12668
▁90% 12669
garten 12670
▁adauga 12671
▁Kil 12672
▁troops 12673
▁pale 12674
host 12675
▁cry 12676
▁Alb 12677
▁Brad 12678
▁bicycle 12679
▁24/7 12680
▁с 12681
▁stimul 12682
gler 12683
▁notwendig 12684
▁cousin 12685
cheie 12686
hay 12687
▁rezolv 12688
▁THIS 12689
ordre 12690
iști 12691
▁conclude 12692
▁Lage 12693
▁Entertainment 12694
▁valued 12695
ktion 12696
▁priorities 12697
▁1986 12698
▁fatal 12699
▁accurately 12700
▁1987 12701
▁folk 12702
7) 12703
führer 12704
▁knot 12705
haltung 12706
▁Charlie 12707
âge 12708
▁threshold 12709
▁assault 12710
▁meist 12711
bine 12712
surprisingly 12713
▁Protect 12714
▁Hack 12715
▁Quant 12716
▁Cet 12717
▁convinced 12718
▁muncă 12719
dging 12720
▁Millionen 12721
zahlung 12722
▁anticipated 12723
▁brass 12724
KO 12725
▁culori 12726
▁Aero 12727
▁intermediu 12728
▁Philippines 12729
▁jury 12730
▁Funktion 12731
▁probe 12732
TL 12733
1.0 12734
ELL 12735
She 12736
▁Blood 12737
▁Dean 12738
▁scène 12739
volu 12740
▁Epi 12741
▁séjour 12742
▁Smartphone 12743
▁fired 12744
beat 12745
▁pockets 12746
▁serviciu 12747
▁affairs 12748
▁Ry 12749
▁Stadium 12750
▁snacks 12751
▁efectu 12752
▁Richtung 12753
▁dresses 12754
▁Medien 12755
writer 12756
changing 12757
▁supportive 12758
▁beneath 12759
paid 12760
▁customize 12761
▁Ferr 12762
reaches 12763
arma 12764
ción 12765
▁elderly 12766
▁modification 12767
▁perfection 12768
▁Allow 12769
▁belonging 12770
▁compound 12771
▁Results 12772
▁astăzi 12773
▁Liber 12774
jor 12775
▁Nin 12776
▁lumina 12777
▁130 12778
▁Platform 12779
▁SMS 12780
▁medic 12781
hör 12782
▁Kas 12783
▁tomato 12784
▁logiciel 12785
php 12786
▁premises 12787
▁Communication 12788
▁reprezintă 12789
▁Partners 12790
▁RV 12791
▁pants 12792
▁envie 12793
▁commerce 12794
▁tears 12795
▁cooler 12796
strand 12797
▁Gil 12798
▁référence 12799
▁electronics 12800
exposition 12801
▁Caribbean 12802
▁compelling 12803
luci 12804
▁Brooklyn 12805
▁Thai 12806
dler 12807
▁supra 12808
centered 12809
▁metro 12810
▁03 12811
▁enrich 12812
▁adevarat 12813
5000 12814
▁bell 12815
▁sine 12816
▁appealing 12817
clam 12818
▁vorhanden 12819
▁pickup 12820
▁Alaska 12821
▁Nacht 12822
borough 12823
▁Blanc 12824
▁apare 12825
▁Works 12826
mettent 12827
atter 12828
terra 12829
▁Bit 12830
RL 12831
▁Wander 12832
▁Hawk 12833
▁Probleme 12834
regel 12835
hne 12836
fass 12837
▁Andy 12838
▁befinde 12839
boo 12840
▁connectivity 12841
▁spielt 12842
zweiten 12843
ţilor 12844
▁confi 12845
▁schlecht 12846
▁Beginn 12847
▁floating 12848
nimmt 12849
▁arbeiten 12850
pillar 12851
sterreich 12852
▁Schule 12853
▁durée 12854
▁honestly 12855
▁acel 12856
▁Prozess 12857
Min 12858
enii 12859
DAY 12860
▁Blo 12861
▁bolt 12862
sicher 12863
▁17, 12864
▁anchor 12865
▁consistency 12866
▁relatives 12867
▁lac 12868
105 12869
▁Craig 12870
▁mandate 12871
▁bedeutet 12872
▁Soviet 12873
▁arguments 12874
▁Gebäude 12875
▁Parliament 12876
▁Kha 12877
nica 12878
▁Amazing 12879
gründe 12880
▁Ott 12881
Exp 12882
▁ianuarie 12883
riot 12884
▁futur 12885
▁Honda 12886
!!!! 12887
▁citit 12888
▁22, 12889
țional 12890
▁lovers 12891
▁Current 12892
▁drone 12893
▁promising 12894
devoted 12895
▁Born 12896
▁viitor 12897
▁ritual 12898
▁Guard 12899
09. 12900
▁Py 12901
▁finds 12902
▁boli 12903
▁Mitglieder 12904
ogni 12905
▁stones 12906
rox 12907
▁dock 12908
▁onion 12909
▁classified 12910
big 12911
RG 12912
influenced 12913
▁sudden 12914
▁ample 12915
án 12916
▁ornament 12917
datele 12918
▁Dad 12919
BER 12920
gerecht 12921
kett 12922
▁Antonio 12923
Nu 12924
dium 12925
CAD 12926
▁bundle 12927
▁Vari 12928
▁thrive 12929
▁Seminar 12930
wire 12931
▁contributing 12932
▁Bour 12933
▁dori 12934
▁packing 12935
▁colleges 12936
▁garbage 12937
▁vector 12938
▁suggestion 12939
borne 12940
▁Listen 12941
▁Prix 12942
viennent 12943
insbesondere 12944
▁fonctionne 12945
▁mainstream 12946
▁merci 12947
oko 12948
▁Commerce 12949
▁droits 12950
▁muzica 12951
▁profesor 12952
▁epic 12953
▁intuitive 12954
▁aggregate 12955
▁vaccine 12956
▁dank 12957
▁situ 12958
▁Cand 12959
▁Ganz 12960
▁Crystal 12961
▁discretion 12962
mug 12963
▁anzu 12964
▁cement 12965
▁priest 12966
▁rejected 12967
▁Summit 12968
▁Sara 12969
▁palette 12970
▁continuare 12971
uge 12972
ryl 12973
▁Solid 12974
▁meilleure 12975
▁Tennessee 12976
rail 12977
▁attributes 12978
▁vessels 12979
cylinder 12980
▁parfait 12981
abb 12982
▁Julie 12983
▁pièces 12984
▁proiecte 12985
médi 12986
▁décembre 12987
Per 12988
1/ 12989
regulated 12990
▁Dy 12991
▁23, 12992
beck 12993
tură 12994
▁Chiar 12995
▁isolated 12996
▁kennen 12997
Du 12998
reflected 12999
▁belong 13000
▁welcomed 13001
▁Rate 13002
prestigious 13003
▁1/4 13004
▁distinction 13005
▁boring 13006
▁booked 13007
▁citizen 13008
▁comprises 13009
▁aufge 13010
GL 13011
▁nearest 13012
▁printr 13013
▁département 13014
▁planner 13015
▁Rai 13016
▁Broad 13017
▁pastor 13018
▁reservation 13019
▁decembrie 13020
▁suficient 13021
geld 13022
training 13023
deshalb 13024
▁chaud 13025
Cor 13026
▁Grade 13027
▁faţă 13028
story 13029
gericht 13030
▁Got 13031
particulièrement 13032
▁bump 13033
▁fatigue 13034
Activ 13035
▁numéro 13036
▁stranger 13037
▁Skin 13038
add 13039
Ainsi 13040
▁assists 13041
▁zusätzlich 13042
▁vede 13043
RON 13044
▁seemingly 13045
▁NU 13046
geb 13047
▁Release 13048
▁throwing 13049
▁Alabama 13050
▁Something 13051
▁Cuba 13052
▁Verbindung 13053
▁Cir 13054
your 13055
-13 13056
▁Delta 13057
▁Twin 13058
▁governance 13059
▁groom 13060
▁conception 13061
▁governor 13062
▁Spar 13063
▁coastal 13064
▁Seven 13065
▁inclusive 13066
cili 13067
▁Ridge 13068
teller 13069
▁Kin 13070
leiter 13071
stern 13072
change 13073
▁presidential 13074
▁composer 13075
Stu 13076
▁Frankfurt 13077
prä 13078
▁Ideal 13079
▁linear 13080
▁bloom 13081
▁grades 13082
mettant 13083
▁finishes 13084
holz 13085
▁dirty 13086
▁Roh 13087
▁Praxis 13088
tempo 13089
▁attempted 13090
▁primar 13091
▁pomp 13092
▁tolle 13093
▁adres 13094
▁Between 13095
▁ruin 13096
▁matériel 13097
MER 13098
Nevertheless 13099
▁corruption 13100
spire 13101
▁mou 13102
ROM 13103
▁underground 13104
▁relativ 13105
waited 13106
▁speeds 13107
▁adjusted 13108
▁Flat 13109
UND 13110
▁individuelle 13111
▁anybody 13112
EO 13113
-> 13114
▁Spend 13115
aktion 13116
édit 13117
▁quest 13118
rind 13119
▁mediu 13120
▁barriers 13121
▁répondre 13122
▁novembre 13123
▁champ 13124
saw 13125
▁fed 13126
▁favorites 13127
▁shield 13128
▁Wide 13129
▁problema 13130
▁Asta 13131
▁refreshing 13132
hey 13133
obtaining 13134
▁parler 13135
▁Cele 13136
frage 13137
écran 13138
▁cleared 13139
zehn 13140
parmi 13141
änder 13142
▁Defense 13143
tatea 13144
▁reasonably 13145
▁Idee 13146
nehm 13147
technologie 13148
atura 13149
▁slope 13150
Hence 13151
▁40% 13152
▁jewe 13153
▁queries 13154
▁$8 13155
▁Parker 13156
▁publique 13157
quant 13158
issue 13159
▁Cleveland 13160
4,000 13161
IDE 13162
▁Barbara 13163
udge 13164
corn 13165
veți 13166
▁proteins 13167
▁trăi 13168
▁mijloc 13169
logie 13170
▁Walter 13171
heißt 13172
search 13173
▁hochwertige 13174
▁încerc 13175
▁administrator 13176
tension 13177
▁homemade 13178
▁$20 13179
▁leben 13180
netz 13181
▁intensity 13182
▁clever 13183
▁installer 13184
▁Wand 13185
meister 13186
ziel 13187
▁architect 13188
▁crede 13189
▁Sleep 13190
▁demonstr 13191
cake 13192
▁Cheap 13193
pool 13194
▁gadget 13195
▁Anbieter 13196
▁Jonathan 13197
ül 13198
▁Harvard 13199
▁1985 13200
HP 13201
▁afara 13202
▁halten 13203
▁Technik 13204
▁dressed 13205
weis 13206
▁donated 13207
also 13208
▁EN 13209
▁imprim 13210
▁onions 13211
Par 13212
▁donate 13213
▁mice 13214
referring 13215
▁restored 13216
▁amateur 13217
▁Switch 13218
appel 13219
▁idéal 13220
▁wheat 13221
▁lime 13222
REA 13223
riti 13224
ţiile 13225
▁machinery 13226
UNE 13227
▁Cont 13228
▁attendees 13229
▁aparat 13230
freundlich 13231
▁zilnic 13232
▁spark 13233
▁Gast 13234
▁Issue 13235
▁scam 13236
▁bonds 13237
owner 13238
▁empfehlen 13239
elia 13240
cic 13241
▁honored 13242
▁castle 13243
avand 13244
rough 13245
▁Address 13246
angle 13247
leton 13248
▁locked 13249
▁consolid 13250
▁voucher 13251
ației 13252
wachsen 13253
▁magazines 13254
▁Schools 13255
▁voices 13256
▁Dry 13257
▁tricks 13258
schließlich 13259
▁loyalty 13260
risk 13261
▁Vers 13262
chester 13263
▁decorated 13264
▁copiilor 13265
riz 13266
03. 13267
▁Hur 13268
▁archive 13269
▁Continue 13270
▁Nähe 13271
jit 13272
gekommen 13273
▁conjunction 13274
combining 13275
▁Unterstützung 13276
oza 13277
▁sketch 13278
▁arată 13279
▁Mining 13280
uous 13281
▁devis 13282
Almost 13283
Hu 13284
▁Om 13285
MF 13286
liz 13287
▁fails 13288
▁comparable 13289
▁vein 13290
▁Vis 13291
▁viagra 13292
▁farming 13293
▁Late 13294
geschrieben 13295
hrew 13296
▁melt 13297
lager 13298
halte 13299
▁Hotels 13300
▁facebook 13301
▁défi 13302
shore 13303
▁membrane 13304
▁sixth 13305
api 13306
▁Owner 13307
▁(" 13308
▁$50 13309
▁protective 13310
/2 13311
▁Girls 13312
Gri 13313
▁nouă 13314
▁infections 13315
rân 13316
▁Geb 13317
▁Conseil 13318
▁imagini 13319
▁promotions 13320
▁enforce 13321
▁applicant 13322
▁Apart 13323
▁progression 13324
▁careers 13325
▁litigation 13326
▁Menge 13327
▁Contract 13328
▁Kel 13329
▁réserve 13330
▁Cold 13331
▁larg 13332
▁microwave 13333
▁Whit 13334
▁Technologies 13335
OU 13336
itudine 13337
▁handles 13338
▁proceedings 13339
▁prizes 13340
▁unterstützen 13341
▁piele 13342
▁profound 13343
schließen 13344
▁trafic 13345
▁Nar 13346
▁Gesamt 13347
▁bugs 13348
▁Amy 13349
▁eastern 13350
nice 13351
▁Besuch 13352
▁synth 13353
▁clasa 13354
Book 13355
▁ribbon 13356
▁neues 13357
ZE 13358
▁peers 13359
leistung 13360
▁internship 13361
count 13362
nam 13363
▁12- 13364
acked 13365
gonna 13366
▁Dinge 13367
Time 13368
▁twelve 13369
eye 13370
▁avantaj 13371
▁Glas 13372
aucune 13373
▁boil 13374
▁Gray 13375
adapt 13376
occ 13377
▁prieten 13378
▁trai 13379
▁Scal 13380
▁conscious 13381
▁charter 13382
KS 13383
▁Barr 13384
▁summit 13385
▁inflammation 13386
tungs 13387
ovic 13388
▁conduit 13389
▁Alice 13390
▁veterans 13391
Während 13392
▁maximal 13393
▁Hawaii 13394
▁Pine 13395
acelasi 13396
hyp 13397
sensitivity 13398
pour 13399
ре 13400
▁Kentucky 13401
▁badge 13402
affecting 13403
▁chairman 13404
▁München 13405
▁Hersteller 13406
▁urmat 13407
tels 13408
▁FM 13409
▁Basis 13410
▁erklärt 13411
▁changer 13412
tischen 13413
▁brave 13414
▁siguranta 13415
▁partnerships 13416
ților 13417
▁breathe 13418
rink 13419
▁footage 13420
▁transformed 13421
▁prep 13422
▁upset 13423
▁Native 13424
▁Prima 13425
▁jersey 13426
230 13427
▁lucrurile 13428
▁divine 13429
▁Pit 13430
RIS 13431
▁Cultural 13432
▁exotic 13433
▁tastes 13434
▁bargain 13435
▁optimize 13436
▁électrique 13437
deuxième 13438
▁Gary 13439
▁projection 13440
▁sliding 13441
club 13442
association 13443
▁LG 13444
▁capsule 13445
▁politicians 13446
▁thumb 13447
▁globally 13448
positioned 13449
▁Hamilton 13450
arme 13451
▁efectuat 13452
zip 13453
▁welfare 13454
Leistung 13455
▁Bac 13456
▁fizic 13457
OK 13458
▁limba 13459
▁wardrobe 13460
▁offline 13461
▁fortune 13462
▁dialog 13463
▁dramatically 13464
▁NYC 13465
▁Rem 13466
▁bronze 13467
▁pulse 13468
Fortunately 13469
▁glue 13470
▁Expo 13471
▁profitable 13472
▁distributor 13473
abilité 13474
▁lyrics 13475
▁mesh 13476
▁organizational 13477
▁vanilla 13478
▁foc 13479
▁1984 13480
▁créé 13481
▁servi 13482
▁underneath 13483
▁surveys 13484
▁genes 13485
▁limite 13486
oder 13487
▁mandatory 13488
▁hospitality 13489
▁bikes 13490
▁Quote 13491
glu 13492
▁activitatea 13493
preventing 13494
▁Kh 13495
économie 13496
▁visite 13497
▁spectacle 13498
▁tract 13499
▁quant 13500
▁evolu 13501
▁invata 13502
▁homo 13503
▁Users 13504
introducing 13505
hibi 13506
▁Instrument 13507
▁ép 13508
▁Raj 13509
▁executives 13510
atoire 13511
▁erforderlich 13512
male 13513
umble 13514
erson 13515
▁Treatment 13516
▁Representative 13517
▁corners 13518
▁Petit 13519
8) 13520
▁Walker 13521
▁Stir 13522
/19 13523
▁Stelle 13524
ără 13525
osse 13526
2000 13527
▁McG 13528
DV 13529
▁Firm 13530
▁packet 13531
Toate 13532
▁institutional 13533
rug 13534
DG 13535
fine 13536
bringen 13537
▁Horse 13538
▁premiere 13539
▁Că 13540
acheter 13541
▁Afghanistan 13542
▁Prop 13543
ühr 13544
▁braucht 13545
▁sunny 13546
▁Sach 13547
▁volumes 13548
tinut 13549
▁Sho 13550
▁winds 13551
▁Mall 13552
ledge 13553
▁sciences 13554
plication 13555
VR 13556
destin 13557
▁früh 13558
▁tongue 13559
▁Jennifer 13560
▁bracket 13561
▁episodes 13562
breite 13563
▁stoc 13564
ilia 13565
▁Gulf 13566
▁transparency 13567
Industrie 13568
▁viewers 13569
AIN 13570
▁Registration 13571
/4 13572
▁fera 13573
▁06 13574
▁einzu 13575
enburg 13576
▁eff 13577
▁Stage 13578
▁Cour 13579
indu 13580
▁Tools 13581
IST 13582
grund 13583
seitig 13584
pai 13585
▁waist 13586
▁Therapy 13587
▁nomination 13588
▁seama 13589
▁analyse 13590
▁emerge 13591
▁adjustment 13592
▁stroll 13593
▁Beyond 13594
▁legally 13595
▁gauge 13596
▁26, 13597
Tex 13598
economic 13599
stoffe 13600
Wir 13601
ffen 13602
▁acoperi 13603
▁finale 13604
▁theoretical 13605
1.3 13606
anim 13607
▁separation 13608
agence 13609
▁réalisé 13610
sprech 13611
▁embedded 13612
▁defence 13613
éni 13614
▁Norman 13615
▁insgesamt 13616
▁reminde 13617
▁timeline 13618
▁symbols 13619
▁booth 13620
▁Window 13621
▁Titan 13622
înt 13623
▁langa 13624
isant 13625
hart 13626
broader 13627
▁stays 13628
dur 13629
▁Actually 13630
works 13631
▁réussi 13632
▁performant 13633
▁banana 13634
▁baked 13635
▁Parlament 13636
▁Legend 13637
toata 13638
platte 13639
▁Mou 13640
HL 13641
▁(8 13642
▁accepting 13643
▁Senator 13644
▁consciousness 13645
▁conducting 13646
▁panic 13647
▁FDA 13648
▁(7 13649
tool 13650
▁Shipping 13651
▁hop 13652
▁conferences 13653
▁pork 13654
▁spam 13655
▁interesant 13656
▁Tagen 13657
sig 13658
étro 13659
▁legendary 13660
▁Alternative 13661
iana 13662
▁responsable 13663
▁Mihai 13664
▁decreased 13665
▁organised 13666
▁Lamp 13667
litz 13668
ohn 13669
▁moteur 13670
III 13671
▁Montag 13672
▁naturel 13673
▁Hus 13674
▁Schl 13675
ains 13676
▁dying 13677
▁HIV 13678
], 13679
alität 13680
▁institute 13681
mix 13682
▁Regulation 13683
▁pagina 13684
▁Awesome 13685
▁Official 13686
▁Minute 13687
▁dairy 13688
▁carti 13689
isk 13690
▁thrilled 13691
▁german 13692
▁frustration 13693
▁forums 13694
command 13695
▁router 13696
▁Lösung 13697
white 13698
▁synthetic 13699
▁retrouver 13700
alle 13701
daran 13702
▁wahr 13703
▁paths 13704
▁unver 13705
▁Environment 13706
▁médecin 13707
crypt 13708
▁pursuit 13709
flat 13710
bron 13711
▁Specialist 13712
▁Vent 13713
Gen 13714
▁attraction 13715
▁piese 13716
CHE 13717
fähig 13718
▁28, 13719
defender 13720
▁stupid 13721
enfin 13722
▁composite 13723
fragen 13724
Part 13725
may 13726
▁Bucureşti 13727
▁février 13728
RED 13729
▁makers 13730
▁guns 13731
▁pasta 13732
STR 13733
▁worthy 13734
Poate 13735
▁101 13736
▁souhaitez 13737
GN 13738
drive 13739
▁aveti 13740
▁eventual 13741
▁américain 13742
▁Mine 13743
▁sunset 13744
▁Choice 13745
▁offset 13746
APP 13747
▁suchen 13748
▁aduc 13749
▁Unternehmens 13750
▁// 13751
▁astept 13752
▁Birthday 13753
▁barn 13754
apport 13755
▁collar 13756
▁gefunden 13757
▁Hai 13758
▁Soul 13759
ismus 13760
letzt 13761
▁maker 13762
▁executed 13763
▁Forschung 13764
▁täglich 13765
▁tailor 13766
▁headquarters 13767
▁physicians 13768
▁Scout 13769
folgen 13770
▁cycling 13771
mindestens 13772
▁joli 13773
▁classification 13774
▁Führung 13775
▁peau 13776
INT 13777
▁Garage 13778
teile 13779
util 13780
▁petrec 13781
▁Nevada 13782
▁laisser 13783
▁territoire 13784
▁fichier 13785
▁Formula 13786
scopul 13787
▁Tee 13788
▁Monte 13789
▁pumpkin 13790
▁picnic 13791
▁occupation 13792
▁numérique 13793
linie 13794
▁masina 13795
▁Prä 13796
▁dezvoltare 13797
▁vient 13798
▁ranks 13799
▁Bruce 13800
▁seara 13801
▁hungry 13802
▁resolved 13803
paired 13804
▁Congratulations 13805
▁religi 13806
sätze 13807
▁Eat 13808
▁dense 13809
▁slice 13810
▁mulți 13811
▁vorbe 13812
▁terminate 13813
worm 13814
ignon 13815
▁Howard 13816
▁toddler 13817
▁waters 13818
▁graduates 13819
▁fundraising 13820
06. 13821
▁scent 13822
▁CPU 13823
▁Kid 13824
▁Years 13825
▁Oktober 13826
filled 13827
▁Laser 13828
▁tut 13829
ively 13830
▁WiFi 13831
standen 13832
▁publié 13833
▁explaining 13834
trieb 13835
▁Rapid 13836
▁unterstützt 13837
▁Sonnen 13838
▁lenses 13839
▁pressing 13840
▁respected 13841
adapted 13842
Don 13843
▁mun 13844
MAR 13845
▁seam 13846
chev 13847
▁Sozial 13848
▁Arabia 13849
▁equation 13850
▁elevi 13851
▁piata 13852
JA 13853
▁wholesale 13854
▁faithful 13855
legal 13856
▁Brexit 13857
vention 13858
▁adhere 13859
▁Associate 13860
▁decorations 13861
▁crois 13862
buck 13863
▁smartphones 13864
Regardless 13865
center 13866
eiß 13867
▁emotion 13868
▁Gespräch 13869
▁Avi 13870
▁loft 13871
▁Wissen 13872
▁orchestra 13873
▁gehören 13874
▁Reich 13875
▁abandoned 13876
▁Lanka 13877
pala 13878
▁Stell 13879
logged 13880
terie 13881
▁educa 13882
1). 13883
▁disponibil 13884
IND 13885
▁Pont 13886
▁téléphone 13887
▁rope 13888
ève 13889
▁Trainer 13890
▁présence 13891
▁Oscar 13892
▁VR 13893
▁Besucher 13894
▁disponibles 13895
▁gelten 13896
▁ports 13897
Invest 13898
ésormais 13899
schauen 13900
▁Command 13901
▁alternate 13902
citation 13903
évolution 13904
▁Maine 13905
pflege 13906
2011 13907
▁Ground 13908
▁ghost 13909
lebt 13910
▁scenarios 13911
▁mall 13912
▁Kings 13913
▁15% 13914
▁Paint 13915
FD 13916
ugg 13917
▁Leon 13918
▁grows 13919
▁pharmacy 13920
▁situat 13921
20,000 13922
▁10,000 13923
▁membre 13924
▁facilement 13925
▁Analytics 13926
▁Marvel 13927
▁survived 13928
▁conviction 13929
▁Produktion 13930
▁professionally 13931
▁contributor 13932
▁Kurs 13933
▁humor 13934
▁cinci 13935
▁Different 13936
▁Verarbeitung 13937
▁inexpensive 13938
▁sortie 13939
▁thankful 13940
▁vacances 13941
▁vergangen 13942
▁wings 13943
▁nano 13944
▁touches 13945
▁Notice 13946
▁reprezinta 13947
▁rewarding 13948
▁Kurz 13949
▁mega 13950
▁secrets 13951
▁vorher 13952
▁crescut 13953
▁coordination 13954
▁dissertation 13955
▁header 13956
existent 13957
thal 13958
▁translate 13959
vertrag 13960
GU 13961
▁Arthur 13962
wahl 13963
▁octobre 13964
▁bother 13965
▁pencil 13966
▁Dyna 13967
▁complimentary 13968
écoute 13969
PB 13970
▁independently 13971
▁targeting 13972
fought 13973
mental 13974
▁Veranstaltung 13975
▁tatsächlich 13976
▁Features 13977
▁1920 13978
▁Domain 13979
▁rally 13980
▁iunie 13981
▁fabrics 13982
▁mint 13983
▁antioxidant 13984
hut 13985
EPA 13986
▁rigid 13987
▁evit 13988
▁personnage 13989
▁garanti 13990
▁Hä 13991
▁Days 13992
boarding 13993
jemand 13994
▁Pos 13995
▁wool 13996
▁boom 13997
▁wichtige 13998
▁emerged 13999
▁smoothly 14000
▁Interview 14001
gemäß 14002
▁suivi 14003
▁missions 14004
▁Kreis 14005
century 14006
▁tuned 14007
isieren 14008
▁Branch 14009
▁Russell 14010
▁** 14011
▁Lehr 14012
▁perspectives 14013
▁handed 14014
▁apporte 14015
unta 14016
▁contemplat 14017
riel 14018
▁freely 14019
▁loyal 14020
▁evolved 14021
▁Cafe 14022
▁assignments 14023
▁Cream 14024
▁Build 14025
▁exams 14026
▁graduation 14027
▁Dining 14028
inne 14029
▁propriu 14030
▁accordingly 14031
▁seniors 14032
▁sisters 14033
formerly 14034
▁fleur 14035
▁alten 14036
▁Gefühl 14037
▁freeze 14038
▁structured 14039
▁reserved 14040
stellt 14041
▁foto 14042
linger 14043
▁profiter 14044
▁trup 14045
▁Hunter 14046
▁widespread 14047
entretien 14048
▁Truck 14049
Can 14050
péri 14051
▁>> 14052
▁trains 14053
▁faca 14054
▁Patienten 14055
▁scor 14056
▁perceived 14057
setzung 14058
▁Robin 14059
▁geboren 14060
lons 14061
inţa 14062
glob 14063
subsequently 14064
▁vet 14065
▁Holland 14066
▁Clinical 14067
▁uncertainty 14068
hohen 14069
uza 14070
▁kleiner 14071
▁substances 14072
ados 14073
wheel 14074
▁cone 14075
▁castig 14076
▁Conditions 14077
minus 14078
▁permits 14079
fond 14080
▁reactions 14081
▁Mario 14082
▁materiale 14083
AH 14084
▁juillet 14085
▁juridic 14086
▁dropping 14087
expérience 14088
▁depot 14089
▁plea 14090
dezvoltarea 14091
▁Independent 14092
▁Homes 14093
▁crust 14094
▁pillow 14095
kreis 14096
▁boiler 14097
latin 14098
▁stet 14099
GH 14100
▁absent 14101
▁Directors 14102
zwischen 14103
▁comprendre 14104
▁25, 14105
▁pharmaceutical 14106
▁placeholder 14107
KI 14108
▁români 14109
▁Dollar 14110
▁Operations 14111
▁Dublin 14112
▁drawings 14113
▁respir 14114
▁haul 14115
Obviously 14116
▁Beat 14117
▁jeans 14118
▁Masters 14119
▁bits 14120
poți 14121
▁asigur 14122
▁intampla 14123
▁marc 14124
...... 14125
▁districts 14126
cru 14127
nav 14128
huile 14129
▁limitation 14130
boat 14131
IRE 14132
Unis 14133
dated 14134
▁consultants 14135
▁Josh 14136
tanz 14137
launching 14138
▁browsing 14139
▁incerc 14140
▁27, 14141
не 14142
wig 14143
▁spar 14144
▁token 14145
▁09 14146
spa 14147
ometer 14148
▁riders 14149
▁Drop 14150
RN 14151
▁pairs 14152
▁psychology 14153
▁Douglas 14154
▁verwenden 14155
▁(9 14156
▁Rental 14157
▁délai 14158
▁sooner 14159
▁bankruptcy 14160
04. 14161
abend 14162
çon 14163
▁Ple 14164
fug 14165
▁Wohnung 14166
▁Preise 14167
▁Kay 14168
▁notify 14169
▁Brain 14170
▁optical 14171
▁modifications 14172
▁repos 14173
▁worksheet 14174
continu 14175
▁assumed 14176
varying 14177
feier 14178
▁Freedom 14179
▁Inhalte 14180
▁observations 14181
▁Gruppe 14182
▁Cyber 14183
hort 14184
▁langue 14185
führen 14186
ganze 14187
▁forte 14188
▁Stefan 14189
▁Jetzt 14190
mehr 14191
trip 14192
▁poem 14193
▁practitioners 14194
▁connector 14195
ECT 14196
▁inseamna 14197
addressing 14198
▁beliebt 14199
▁Mama 14200
▁fade 14201
messen 14202
▁Visa 14203
▁Meta 14204
lene 14205
▁remembered 14206
/3 14207
apte 14208
▁uncomfortable 14209
▁romance 14210
▁réalis 14211
▁Vincent 14212
▁ABC 14213
▁handicap 14214
▁Shin 14215
▁Hunde 14216
▁Ach 14217
▁Questions 14218
▁particles 14219
usch 14220
▁SUV 14221
▁Tous 14222
▁empower 14223
▁Yi 14224
▁LinkedIn 14225
▁Profile 14226
▁surround 14227
▁wh 14228
▁Weiter 14229
▁Weight 14230
▁creatures 14231
Especially 14232
▁repede 14233
▁albums 14234
▁compatibil 14235
▁Interesse 14236
abili 14237
▁roast 14238
▁unii 14239
▁Glad 14240
▁enthusiasm 14241
▁whisk 14242
▁freezer 14243
▁stolen 14244
▁neighbour 14245
▁sake 14246
▁Effect 14247
▁fighter 14248
▁tranquil 14249
▁organizer 14250
pixel 14251
▁Guest 14252
▁Philipp 14253
kunft 14254
▁Meer 14255
▁inviting 14256
gänge 14257
▁Position 14258
giving 14259
▁marble 14260
▁neg 14261
▁Haar 14262
Ein 14263
▁buses 14264
▁Lodge 14265
soare 14266
▁Barn 14267
▁captain 14268
▁Fix 14269
ulate 14270
ență 14271
▁finances 14272
▁VIP 14273
▁Adams 14274
▁spécialisé 14275
▁fortunate 14276
ility 14277
▁democracy 14278
shu 14279
▁consiste 14280
▁tort 14281
▁branding 14282
▁porch 14283
UNI 14284
▁placut 14285
▁coupled 14286
▁ministre 14287
▁minerals 14288
▁safer 14289
▁outlets 14290
▁caution 14291
▁lightly 14292
▁utilizator 14293
▁Pala 14294
▁doll 14295
(1) 14296
chol 14297
▁Left 14298
▁roulant 14299
▁propune 14300
▁Cred 14301
▁negotiations 14302
amba 14303
▁grasp 14304
▁Amsterdam 14305
▁Zweck 14306
▁conven 14307
▁organizing 14308
section 14309
▁endeavor 14310
▁basics 14311
jud 14312
▁yarn 14313
▁shout 14314
fällt 14315
▁dragoste 14316
▁Rein 14317
Cal 14318
▁deaths 14319
▁24, 14320
▁măr 14321
server 14322
▁explic 14323
▁sufer 14324
▁lucrări 14325
▁Disease 14326
▁prescribed 14327
prozess 14328
▁dessin 14329
▁refuge 14330
▁cope 14331
pole 14332
▁vacant 14333
▁sezon 14334
▁Carbon 14335
▁goût 14336
Ste 14337
▁surroundings 14338
definite 14339
▁adaptation 14340
cteur 14341
System 14342
▁Burg 14343
▁retention 14344
examen 14345
▁adjustments 14346
nies 14347
▁RSS 14348
▁Umwelt 14349
▁strengths 14350
loom 14351
▁pics 14352
phase 14353
▁Poland 14354
▁practicing 14355
monetary 14356
▁embodiment 14357
▁jocuri 14358
▁impreuna 14359
▁Lyon 14360
keeping 14361
▁Starting 14362
▁începe 14363
▁clay 14364
bildung 14365
Technologie 14366
toxic 14367
▁gasit 14368
rott 14369
brook 14370
▁wann 14371
▁lined 14372
▁Chelsea 14373
▁Orlando 14374
▁Otherwise 14375
▁debit 14376
▁entsprechend 14377
nism 14378
issen 14379
▁rendez 14380
▁processus 14381
mbi 14382
▁Graduate 14383
▁cozy 14384
▁Freunde 14385
▁teme 14386
▁bias 14387
102 14388
terrorism 14389
threatening 14390
ни 14391
▁Sonntag 14392
▁efect 14393
▁prayers 14394
▁backpack 14395
?) 14396
▁searches 14397
ouverture 14398
▁sustained 14399
hawk 14400
messe 14401
▁prototype 14402
▁stră 14403
▁Neo 14404
▁29, 14405
izo 14406
▁Anton 14407
SIS 14408
pendant 14409
▁passive 14410
▁Aaron 14411
▁Karen 14412
▁Bildung 14413
ario 14414
▁regulator 14415
gruppe 14416
stepped 14417
▁interventions 14418
▁rounds 14419
▁Khan 14420
▁railway 14421
▁souvenir 14422
▁Plans 14423
aille 14424
▁billing 14425
▁Spiele 14426
▁supermarket 14427
▁flows 14428
▁PayPal 14429
▁tribe 14430
anni 14431
▁rides 14432
▁Orleans 14433
▁evaluated 14434
founder 14435
▁Feld 14436
▁altele 14437
▁thermo 14438
ugh 14439
▁adus 14440
▁Taiwan 14441
▁clause 14442
oxi 14443
alcool 14444
▁Noi 14445
rub 14446
▁dosar 14447
▁Nelson 14448
fassung 14449
▁Kill 14450
▁Standards 14451
▁upward 14452
▁Coloring 14453
Designed 14454
▁Nou 14455
▁borrow 14456
▁Poll 14457
▁antibiotic 14458
▁fabrication 14459
quo 14460
▁crimes 14461
▁nahe 14462
▁aplicat 14463
OST 14464
▁Beijing 14465
fight 14466
▁lodge 14467
dreh 14468
▁harness 14469
▁noiembrie 14470
ounded 14471
▁Imp 14472
▁nächste 14473
funktion 14474
exploitation 14475
▁Ready 14476
▁Plate 14477
▁octombrie 14478
▁considerat 14479
▁Xbox 14480
mind 14481
▁Lind 14482
runde 14483
mination 14484
▁memori 14485
▁cere 14486
barkeit 14487
▁găsi 14488
2.1 14489
▁Finding 14490
▁static 14491
court 14492
▁Gem 14493
▁pièce 14494
▁reel 14495
▁manuscript 14496
▁complications 14497
▁controlling 14498
▁favour 14499
▁advancement 14500
▁Radi 14501
▁faites 14502
▁ordin 14503
sorted 14504
▁1982 14505
▁brutal 14506
▁Guy 14507
▁accomplishment 14508
▁wer 14509
▁withdraw 14510
abilitate 14511
▁NBA 14512
▁Benefit 14513
▁divide 14514
induced 14515
▁văzut 14516
▁peel 14517
▁joints 14518
▁enthalten 14519
▁spy 14520
▁occasional 14521
warm 14522
ême 14523
▁Betriebs 14524
▁Ioan 14525
▁balloon 14526
▁leap 14527
pelled 14528
▁realise 14529
▁Retail 14530
▁Farben 14531
▁Kennedy 14532
▁Firma 14533
▁tineri 14534
tub 14535
PORT 14536
▁stiff 14537
▁notable 14538
tler 14539
▁utile 14540
▁jouer 14541
▁Primary 14542
▁retailer 14543
▁jederzeit 14544
▁amend 14545
▁sagte 14546
atch 14547
ution 14548
once 14549
ended 14550
▁literary 14551
▁wrist 14552
vii 14553
scriere 14554
▁compassion 14555
▁Milan 14556
▁Dach 14557
▁problèmes 14558
▁Pré 14559
▁Feder 14560
Dr 14561
Spr 14562
▁né 14563
François 14564
▁Shu 14565
▁poison 14566
zier 14567
▁attain 14568
▁switching 14569
▁vibration 14570
▁Tablet 14571
▁Lern 14572
offrir 14573
123 14574
cheapest 14575
▁numărul 14576
break 14577
cyto 14578
▁Mississippi 14579
▁dragon 14580
fir 14581
▁fête 14582
▁Wait 14583
buy 14584
având 14585
▁Scar 14586
▁Hund 14587
bug 14588
▁classique 14589
▁tenant 14590
▁Walt 14591
▁timber 14592
inscription 14593
BD 14594
▁Commissioner 14595
▁casinos 14596
▁prochain 14597
▁rustic 14598
▁Kent 14599
▁Deci 14600
ли 14601
▁crossed 14602
▁delightful 14603
▁metres 14604
▁scandal 14605
▁activitate 14606
▁nimeni 14607
ease 14608
▁revenues 14609
▁partially 14610
AE 14611
nique 14612
▁fixtures 14613
▁pupils 14614
Lib 14615
analyse 14616
▁Oracle 14617
troph 14618
▁detected 14619
▁servant 14620
▁badly 14621
comparing 14622
abs 14623
▁fotografi 14624
▁Million 14625
▁Gordon 14626
▁Smok 14627
▁Essay 14628
eptic 14629
▁Transportation 14630
/2019 14631
▁alignment 14632
▁laut 14633
stände 14634
▁concerts 14635
▁weekends 14636
▁obstacles 14637
wür 14638
▁Fisher 14639
▁supervisor 14640
▁traders 14641
▁scary 14642
▁Grove 14643
▁expose 14644
▁enemies 14645
▁Lux 14646
▁Berufs 14647
▁Sheet 14648
▁Natürlich 14649
▁examined 14650
pursuing 14651
▁pools 14652
▁Thompson 14653
▁SAP 14654
claiming 14655
buried 14656
assurance 14657
▁sandwich 14658
uber 14659
▁laisse 14660
peak 14661
spring 14662
▁august 14663
▁benötigt 14664
▁achievements 14665
coala 14666
▁scr 14667
gesagt 14668
▁envelope 14669
▁mapping 14670
▁Suche 14671
first 14672
▁Quin 14673
räu 14674
▁răs 14675
chemical 14676
dad 14677
formation 14678
▁cushion 14679
▁Maß 14680
07. 14681
▁perioadă 14682
▁Wunsch 14683
▁joi 14684
▁$25 14685
▁uploaded 14686
▁hobby 14687
▁septembrie 14688
▁Dimension 14689
▁domeniu 14690
▁Tourism 14691
▁fais 14692
aches 14693
neck 14694
▁Chip 14695
▁Tisch 14696
▁Pai 14697
▁Butter 14698
▁altor 14699
cultural 14700
▁bases 14701
▁Christopher 14702
Kindle 14703
▁bathrooms 14704
▁civilian 14705
▁Architecture 14706
heiten 14707
otte 14708
ри 14709
wash 14710
▁evenimente 14711
lade 14712
▁ermöglicht 14713
Port 14714
▁Horn 14715
▁Housing 14716
▁Profit 14717
▁stressed 14718
▁70% 14719
laying 14720
▁specialize 14721
▁Published 14722
corp 14723
▁revision 14724
▁sail 14725
courtesy 14726
tax 14727
▁perfekt 14728
▁Risk 14729
▁chaleur 14730
ych 14731
▁spine 14732
▁holders 14733
▁Speaking 14734
▁Bernard 14735
incarc 14736
shalb 14737
Potrivit 14738
arising 14739
▁kingdom 14740
▁potato 14741
▁promoted 14742
▁judges 14743
▁naturelle 14744
▁Kindern 14745
schicht 14746
▁Drag 14747
atta 14748
soient 14749
INS 14750
▁legislative 14751
▁teens 14752
▁Fotos 14753
▁illustrations 14754
möglichkeiten 14755
Votre 14756
▁tarif 14757
cli 14758
▁landlord 14759
cine 14760
▁bot 14761
enhancing 14762
▁März 14763
▁succès 14764
▁disclose 14765
▁Geräte 14766
▁Magn 14767
dessous 14768
▁miracle 14769
▁travailler 14770
▁herb 14771
-01 14772
litre 14773
▁tău 14774
ACC 14775
▁diminu 14776
itzer 14777
▁personenbezogen 14778
▁Pure 14779
▁influences 14780
ană 14781
▁proposer 14782
▁longest 14783
euses 14784
/1 14785
hafte 14786
▁Dich 14787
▁candle 14788
ouche 14789
installation 14790
▁Includes 14791
▁entfernt 14792
traf 14793
▁None 14794
▁produc 14795
held 14796
graphic 14797
▁demographic 14798
ingham 14799
schul 14800
▁sneak 14801
laub 14802
▁thickness 14803
▁killer 14804
▁entsprechende 14805
▁theft 14806
▁Jerusalem 14807
Adapt 14808
▁updating 14809
tete 14810
▁warming 14811
anlage 14812
▁lenders 14813
mobile 14814
▁Package 14815
▁Volume 14816
--- 14817
▁Others 14818
content 14819
tement 14820
bildet 14821
▁washer 14822
▁freelance 14823
▁fein 14824
▁catering 14825
▁warmth 14826
▁Month 14827
▁Federation 14828
▁editorial 14829
▁Shopping 14830
▁efort 14831
▁damp 14832
▁declined 14833
▁1978 14834
6,000 14835
location 14836
▁blogger 14837
▁goodness 14838
▁Purchase 14839
▁suspended 14840
▁assessed 14841
rada 14842
▁Lac 14843
▁angeboten 14844
▁Wetter 14845
ores 14846
▁fourni 14847
▁retire 14848
▁Baptist 14849
▁Saison 14850
Bar 14851
▁dossier 14852
brow 14853
▁Kaffee 14854
-25 14855
▁festivals 14856
▁sellers 14857
Ü 14858
▁publisher 14859
▁Designs 14860
▁putut 14861
▁Built 14862
▁recreational 14863
▁european 14864
▁binary 14865
▁Nieder 14866
taking 14867
▁Lots 14868
▁recognised 14869
ssant 14870
ITE 14871
oom 14872
▁Kre 14873
▁pipes 14874
▁hinge 14875
▁enterprises 14876
▁texts 14877
Organiz 14878
▁suivre 14879
noc 14880
fair 14881
▁darkness 14882
▁Whi 14883
natural 14884
Bas 14885
▁tribute 14886
▁Naţional 14887
hara 14888
▁catégorie 14889
▁Schedule 14890
▁lernen 14891
▁Plastic 14892
▁giveaway 14893
▁Ideen 14894
▁circa 14895
▁lice 14896
▁Meinung 14897
▁beside 14898
▁vazut 14899
strom 14900
boro 14901
▁Soon 14902
dozens 14903
▁Arena 14904
▁viața 14905
▁Impact 14906
current 14907
FM 14908
▁coil 14909
gold 14910
▁spate 14911
1.4 14912
solution 14913
▁Wayne 14914
▁queen 14915
illion 14916
greifen 14917
▁Bil 14918
rote 14919
END 14920
äl 14921
▁reçu 14922
flower 14923
▁draws 14924
plant 14925
2010 14926
▁oper 14927
▁conserve 14928
▁sprinkle 14929
mode 14930
▁lifting 14931
▁Institution 14932
Când 14933
Aus 14934
▁fears 14935
▁appointments 14936
oarele 14937
▁duck 14938
▁stadium 14939
▁vezi 14940
▁lap 14941
▁proceeds 14942
geschlossen 14943
▁tren 14944
VS 14945
▁vais 14946
ținut 14947
▁Concert 14948
▁planting 14949
▁honour 14950
▁gras 14951
woo 14952
▁Hero 14953
▁stimulate 14954
▁überhaupt 14955
▁bounce 14956
oodle 14957
▁packs 14958
▁Poker 14959
▁acea 14960
▁parish 14961
-24 14962
▁iTunes 14963
▁lumière 14964
third 14965
▁dynamics 14966
Unless 14967
▁immense 14968
▁Sec 14969
lois 14970
époque 14971
NB 14972
written 14973
▁logement 14974
submitting 14975
▁Quand 14976
▁foi 14977
▁catalogue 14978
nova 14979
▁prezentat 14980
▁tart 14981
те 14982
hack 14983
▁Politic 14984
▁18, 14985
▁ignored 14986
▁spoon 14987
▁Joy 14988
▁reside 14989
.99 14990
lytic 14991
▁bogat 14992
▁nurses 14993
▁funcţi 14994
▁produselor 14995
▁Associates 14996
Est 14997
▁peanut 14998
▁résultat 14999
08. 15000
▁Astro 15001
▁personnelle 15002
320 15003
▁Grab 15004
éco 15005
▁clasic 15006
offre 15007
▁idee 15008
▁cheat 15009
▁Flug 15010
▁1500 15011
▁kurze 15012
With 15013
▁Half 15014
▁disciplines 15015
sorption 15016
▁greutate 15017
mä 15018
▁Literatur 15019
3/ 15020
4.0 15021
▁déco 15022
▁Fuß 15023
▁Deutsche 15024
▁abundance 15025
▁Luther 15026
▁nutritional 15027
▁Jude 15028
AY 15029
▁chore 15030
▁Kro 15031
▁alin 15032
lösung 15033
▁geworden 15034
▁sociaux 15035
▁Spark 15036
▁phenomenon 15037
ICA 15038
▁Ran 15039
▁Schwarz 15040
▁1983 15041
ет 15042
möglich 15043
vocation 15044
▁Organic 15045
Oh 15046
▁blockchain 15047
▁Bă 15048
▁Bass 15049
enie 15050
▁rêve 15051
▁Rap 15052
▁democratic 15053
▁Chart 15054
▁Voi 15055
process 15056
▁preach 15057
tient 15058
▁Train 15059
▁Reihe 15060
help 15061
1.6 15062
▁cazuri 15063
▁chap 15064
aktiv 15065
▁2006. 15066
iene 15067
▁BBQ 15068
dauer 15069
2). 15070
▁Monat 15071
Generally 15072
▁bracelet 15073
▁cartoon 15074
▁pui 15075
temp 15076
▁Particip 15077
▁dumneavoastră 15078
▁Gin 15079
iunile 15080
reise 15081
▁einzige 15082
ANCE 15083
▁humble 15084
claim 15085
LV 15086
▁confiance 15087
▁Trading 15088
▁Fabric 15089
▁Duke 15090
spieler 15091
▁reject 15092
▁crise 15093
▁borders 15094
▁Vehicle 15095
zeiten 15096
enrolled 15097
venue 15098
▁forests 15099
vascular 15100
▁phrases 15101
▁receptor 15102
schied 15103
▁soirée 15104
▁partener 15105
▁Jobs 15106
▁segments 15107
▁violate 15108
▁viable 15109
▁encountered 15110
▁travelers 15111
▁împ 15112
▁convince 15113
▁mailing 15114
▁Zahn 15115
attend 15116
▁eBay 15117
▁Emergency 15118
wirtschaft 15119
▁scholars 15120
▁considerably 15121
▁combo 15122
hiver 15123
▁mysterious 15124
▁Degree 15125
▁fate 15126
▁transplant 15127
▁samedi 15128
unit 15129
▁moyenne 15130
▁Liverpool 15131
▁Champions 15132
zzle 15133
▁arena 15134
▁Pipe 15135
▁waterproof 15136
▁eternal 15137
Whenever 15138
▁Hop 15139
▁Betrieb 15140
gne 15141
▁spe 15142
▁Corner 15143
▁devenir 15144
ambiance 15145
▁Graham 15146
▁desires 15147
▁Applications 15148
▁genutzt 15149
tek 15150
▁Career 15151
▁staple 15152
▁Dodge 15153
▁strictly 15154
▁Gruppen 15155
▁Finanz 15156
▁sporting 15157
▁Wieder 15158
anny 15159
▁bucura 15160
▁Pest 15161
▁circles 15162
▁richtige 15163
▁cycles 15164
static 15165
lasting 15166
▁calcium 15167
▁digest 15168
Enfin 15169
▁stressful 15170
▁schemes 15171
▁décision 15172
▁comercial 15173
işti 15174
▁Comic 15175
▁extensions 15176
▁Sieg 15177
▁pine 15178
ieß 15179
▁Images 15180
▁Mensch 15181
Pap 15182
▁crops 15183
▁sheep 15184
▁istoric 15185
▁Assessment 15186
▁mounting 15187
wirken 15188
▁augment 15189
▁picioare 15190
organisme 15191
▁Monitor 15192
▁celles 15193
▁Maison 15194
notified 15195
▁chew 15196
▁bleu 15197
dow 15198
▁Grav 15199
▁curtains 15200
▁Campus 15201
▁controversial 15202
▁soutien 15203
▁Dell 15204
▁instrumental 15205
▁Nan 15206
▁prom 15207
▁spatial 15208
Similarly 15209
▁Gala 15210
ultimul 15211
▁Vom 15212
▁Foot 15213
bike 15214
▁acids 15215
entend 15216
ivă 15217
▁Weitere 15218
▁vitamins 15219
▁enhancement 15220
▁Cruise 15221
assemble 15222
▁spécifique 15223
affaires 15224
▁indispensable 15225
▁logistics 15226
▁manche 15227
▁dealt 15228
▁favorable 15229
▁unwanted 15230
▁handmade 15231
▁Regi 15232
safe 15233
persoanele 15234
▁destinat 15235
▁Maxi 15236
▁salmon 15237
wag 15238
210 15239
▁warned 15240
läuft 15241
agging 15242
▁responsabil 15243
▁presse 15244
▁amis 15245
▁rolls 15246
control 15247
▁Manufacturer 15248
hnen 15249
▁buget 15250
OW 15251
etro 15252
▁communauté 15253
unci 15254
▁Chine 15255
combines 15256
▁learners 15257
STE 15258
ckel 15259
Service 15260
▁veröffentlicht 15261
besides 15262
getragen 15263
▁opponent 15264
▁volum 15265
▁confusing 15266
invasive 15267
▁conseils 15268
▁vibe 15269
View 15270
oară 15271
Link 15272
▁holy 15273
▁crema 15274
▁Michelle 15275
▁Wien 15276
▁undertake 15277
▁Photograph 15278
humain 15279
▁Hang 15280
designed 15281
▁analyses 15282
▁compose 15283
▁substantially 15284
▁marking 15285
▁campagne 15286
▁$15 15287
pharma 15288
▁playoff 15289
▁momentum 15290
Temp 15291
▁vinegar 15292
▁descriptions 15293
christ 15294
wore 15295
ITY 15296
stehen 15297
▁insulation 15298
grav 15299
2.2 15300
▁Explore 15301
▁dye 15302
stair 15303
artisan 15304
▁zoom 15305
▁turkey 15306
▁locksmith 15307
▁sewing 15308
▁modeling 15309
lied 15310
adel 15311
▁Going 15312
WH 15313
▁deserves 15314
▁arriving 15315
OFF 15316
torului 15317
ucked 15318
▁approached 15319
▁élevé 15320
▁quotidien 15321
▁derzeit 15322
nutzt 15323
science 15324
▁Emma 15325
▁builds 15326
▁Logo 15327
▁clouds 15328
inflammatory 15329
țiuni 15330
▁Cisco 15331
▁würden 15332
▁Shaw 15333
▁Ell 15334
avance 15335
anglais 15336
weil 15337
▁singura 15338
ACK 15339
likewise 15340
ographie 15341
liegen 15342
▁Crow 15343
▁unic 15344
▁Ale 15345
▁păstr 15346
▁informal 15347
650 15348
Benz 15349
▁antenna 15350
▁pagini 15351
▁lansat 15352
▁Fans 15353
taine 15354
JO 15355
▁Tips 15356
cir 15357
nou 15358
▁planted 15359
▁steering 15360
▁Waren 15361
▁clearance 15362
▁Moscow 15363
▁Faith 15364
▁Pizza 15365
▁Tank 15366
QUE 15367
▁studii 15368
éné 15369
▁guerre 15370
▁celebr 15371
▁Factory 15372
▁Browse 15373
▁Request 15374
▁taxpayer 15375
▁assert 15376
unternehmen 15377
▁Ergebnis 15378
▁Antwort 15379
▁Photography 15380
▁plă 15381
IME 15382
▁prochaine 15383
ajouter 15384
▁buffet 15385
▁pixels 15386
▁pledge 15387
▁Inhalt 15388
▁chase 15389
Flow 15390
▁melodi 15391
▁Abu 15392
▁1979 15393
▁Photos 15394
▁qualifications 15395
▁zis 15396
IAL 15397
▁lender 15398
▁indiferent 15399
▁behaviors 15400
▁flowing 15401
▁zweite 15402
abl 15403
Schw 15404
opi 15405
ggi 15406
▁depart 15407
▁garde 15408
▁tuition 15409
fälle 15410
▁determina 15411
▁spice 15412
▁petites 15413
kot 15414
▁intersection 15415
hak 15416
▁autumn 15417
▁verbunden 15418
▁ferme 15419
PN 15420
▁insurer 15421
arten 15422
▁Turkish 15423
▁shoulders 15424
=> 15425
▁Nike 15426
uire 15427
▁Chile 15428
jon 15429
▁fragrance 15430
▁bean 15431
ips 15432
assuming 15433
liens 15434
tocmai 15435
▁60% 15436
ipped 15437
DIS 15438
▁predicted 15439
▁Picture 15440
Bahn 15441
104 15442
tended 15443
▁approve 15444
▁magasin 15445
▁mindset 15446
rase 15447
grand 15448
▁Principal 15449
▁informații 15450
▁legătur 15451
▁Farb 15452
▁Dieu 15453
▁alliance 15454
weiligen 15455
▁Câ 15456
▁counseling 15457
▁traveled 15458
▁translated 15459
▁carne 15460
aked 15461
▁LCD 15462
▁Folge 15463
▁Erfahrungen 15464
▁1981 15465
▁răspuns 15466
itori 15467
▁elementary 15468
▁vorbei 15469
▁cargo 15470
disciplinary 15471
WR 15472
▁counterpart 15473
family 15474
▁viață 15475
▁Definition 15476
▁Cow 15477
fällig 15478
▁Sicht 15479
▁mum 15480
▁Mediterranean 15481
nev 15482
bü 15483
▁slave 15484
schnitt 15485
▁firme 15486
▁spill 15487
▁wages 15488
▁refine 15489
▁upgraded 15490
▁gospel 15491
▁quartier 15492
▁#2 15493
▁Situation 15494
▁suggesting 15495
▁acne 15496
▁Murray 15497
▁Ian 15498
hören 15499
bia 15500
▁Bewegung 15501
▁abzu 15502
reveals 15503
friend 15504
▁Connecticut 15505
▁Testament 15506
▁Lit 15507
▁Ship 15508
▁minunat 15509
▁Moving 15510
▁Device 15511
▁Bake 15512
▁qualification 15513
▁challenged 15514
▁Hinweis 15515
▁sechs 15516
та 15517
120 15518
licht 15519
▁supervision 15520
▁milestone 15521
zeig 15522
▁emphasize 15523
▁complain 15524
sack 15525
▁rebuild 15526
projekt 15527
▁saint 15528
lette 15529
rade 15530
▁pacient 15531
signed 15532
▁mil 15533
cali 15534
▁brochure 15535
▁Bulgaria 15536
Har 15537
DH 15538
▁jumping 15539
ären 15540
▁tactics 15541
▁soleil 15542
lessness 15543
steigen 15544
▁Brief 15545
▁Oz 15546
credit 15547
glass 15548
▁Baltimore 15549
varies 15550
sourced 15551
▁documented 15552
▁devine 15553
möglichst 15554
▁früher 15555
outefois 15556
▁Engagement 15557
▁anumit 15558
▁1930 15559
▁Aufgaben 15560
▁lineup 15561
▁Cad 15562
améliorer 15563
▁februarie 15564
▁cancellation 15565
▁locks 15566
▁modèles 15567
▁breakdown 15568
Ticket 15569
▁Chen 15570
▁Competition 15571
▁median 15572
rische 15573
▁multipli 15574
▁Belgium 15575
▁Physical 15576
▁parameter 15577
▁carrot 15578
▁mandat 15579
▁towel 15580
▁insured 15581
PRI 15582
etter 15583
▁Oder 15584
argued 15585
FB 15586
versicherung 15587
abila 15588
▁Coin 15589
around 15590
▁Lorsqu 15591
valent 15592
▁weltweit 15593
Mod 15594
▁defect 15595
ibly 15596
▁Juan 15597
▁Jur 15598
large 15599
▁indicators 15600
invest 15601
▁rehabilitation 15602
nag 15603
▁Grundlage 15604
▁Strategy 15605
▁supérieur 15606
▁orbit 15607
▁Auftrag 15608
▁Verb 15609
ANA 15610
▁trimis 15611
▁Rub 15612
institu 15613
▁inspect 15614
▁Princess 15615
especially 15616
▁combinations 15617
▁gaze 15618
elemente 15619
deal 15620
polis 15621
shaw 15622
▁Republicans 15623
aded 15624
▁Louisiana 15625
▁Ville 15626
▁afterwards 15627
ONG 15628
▁dryer 15629
▁Manhattan 15630
▁recomanda 15631
▁juca 15632
▁Crown 15633
▁flesh 15634
sichtig 15635
▁rempli 15636
▁deposits 15637
▁Voll 15638
▁analysts 15639
▁Krieg 15640
▁Rosa 15641
▁Supply 15642
GF 15643
idad 15644
▁flush 15645
▁circular 15646
▁național 15647
▁lorsqu 15648
▁analyst 15649
▁Jahrhundert 15650
▁biology 15651
copy 15652
▁bringt 15653
▁Gospel 15654
▁sorgen 15655
zeichnung 15656
chair 15657
EB 15658
▁Beth 15659
115 15660
▁Neue 15661
▁faible 15662
▁methodology 15663
spiele 15664
▁cherry 15665
▁Mak 15666
▁volet 15667
funk 15668
▁aktuelle 15669
▁Yahoo 15670
▁Zusammenarbeit 15671
▁Serve 15672
▁simpler 15673
intégr 15674
ndlich 15675
▁actress 15676
▁reuse 15677
▁reviewing 15678
statt 15679
▁diving 15680
▁Național 15681
voi 15682
Disc 15683
▁Mineral 15684
▁emit 15685
witz 15686
▁forgot 15687
▁dim 15688
upper 15689
sichtlich 15690
▁parcours 15691
8:00 15692
▁keyword 15693
▁upgrades 15694
kunden 15695
▁Seg 15696
▁Circle 15697
▁ginger 15698
mment 15699
▁expenditure 15700
▁parle 15701
▁Counsel 15702
▁Gui 15703
resident 15704
▁benchmark 15705
▁Elektro 15706
▁réalité 15707
▁ridiculous 15708
▁necklace 15709
nian 15710
▁Move 15711
▁elevated 15712
WE 15713
▁Drum 15714
▁Delivery 15715
indicating 15716
▁Benjamin 15717
▁Samuel 15718
bene 15719
▁experienta 15720
▁rocket 15721
▁fossil 15722
▁festive 15723
▁conscience 15724
▁bacon 15725
▁aero 15726
public 15727
▁zic 15728
ombre 15729
▁Drain 15730
7.5 15731
▁Deutschen 15732
reportedly 15733
▁Français 15734
▁enzyme 15735
▁inquiry 15736
▁presque 15737
▁Airlines 15738
▁Salon 15739
▁Volunteer 15740
▁modular 15741
ón 15742
NH 15743
▁souhaite 15744
social 15745
▁Include 15746
▁Decor 15747
dded 15748
▁Außen 15749
rendu 15750
▁MBA 15751
▁columns 15752
▁Wing 15753
▁landmark 15754
schritt 15755
▁désir 15756
(5) 15757
▁réseaux 15758
income 15759
▁revised 15760
HY 15761
▁Explorer 15762
▁Lam 15763
▁almond 15764
▁faux 15765
opt 15766
Out 15767
▁virtue 15768
▁Chocolate 15769
▁spannend 15770
▁spices 15771
▁Climate 15772
▁Residential 15773
gung 15774
▁filtr 15775
circ 15776
sisted 15777
▁dedicat 15778
▁foil 15779
▁uita 15780
▁lié 15781
▁Demo 15782
▁spoil 15783
Cu 15784
naut 15785
▁configured 15786
UK 15787
▁disagree 15788
Medic 15789
cosm 15790
Toute 15791
▁beneficia 15792
fassen 15793
▁bail 15794
igue 15795
▁Mă 15796
▁strips 15797
▁Dritte 15798
▁putere 15799
Play 15800
▁Samstag 15801
▁households 15802
▁persistent 15803
uben 15804
Web 15805
▁scenery 15806
▁défini 15807
news 15808
eira 15809
▁Mumbai 15810
▁Ward 15811
▁ladder 15812
▁plaque 15813
nés 15814
▁condamn 15815
▁attribute 15816
atti 15817
▁Emily 15818
▁pleine 15819
▁automatisch 15820
ifies 15821
onna 15822
▁inject 15823
▁evolve 15824
▁breeze 15825
▁montre 15826
▁memorial 15827
ämlich 15828
NBC 15829
▁1940 15830
▁trouvé 15831
when 15832
▁Büro 15833
▁probability 15834
cute 15835
▁sturdy 15836
AMP 15837
▁Constantin 15838
▁batter 15839
▁bist 15840
▁streams 15841
rushing 15842
▁shaft 15843
▁proprii 15844
émi 15845
online 15846
▁vanity 15847
▁mural 15848
▁distinguish 15849
▁niciun 15850
▁européenne 15851
▁secretary 15852
▁gaps 15853
▁realm 15854
▁elastic 15855
▁Avoid 15856
▁mauvais 15857
▁innovations 15858
▁suprem 15859
▁vederea 15860
wenden 15861
-40 15862
prenant 15863
utilisateur 15864
▁Oliver 15865
111 15866
▁manifestation 15867
▁Rachel 15868
agog 15869
▁seamless 15870
▁Employee 15871
▁dimanche 15872
▁banii 15873
▁Ruth 15874
▁Roy 15875
▁homeless 15876
▁Lower 15877
health 15878
▁atenti 15879
▁touched 15880
May 15881
▁Buc 15882
▁explored 15883
▁declare 15884
▁garment 15885
▁buzz 15886
▁rappel 15887
▁uscat 15888
▁Hyper 15889
Etat 15890
▁Titel 15891
product 15892
woman 15893
▁Gab 15894
▁advances 15895
2/ 15896
prone 15897
kö 15898
▁counting 15899
Sollte 15900
▁Konzept 15901
▁backgrounds 15902
jährige 15903
▁Alltag 15904
▁metrics 15905
▁illustrated 15906
▁Charge 15907
▁thoughtful 15908
gesetz 15909
pfen 15910
▁déroul 15911
▁checkout 15912
quette 15913
▁pierdut 15914
▁Seat 15915
▁linen 15916
archiv 15917
arna 15918
importe 15919
▁PHP 15920
▁Parents 15921
▁Birmingham 15922
▁Integr 15923
▁Mason 15924
zieht 15925
▁camps 15926
OG 15927
▁syrup 15928
▁Cookies 15929
▁Comfort 15930
ută 15931
abia 15932
zeci 15933
▁Gardens 15934
▁incidents 15935
▁participat 15936
▁glimpse 15937
5.5 15938
▁dealers 15939
▁Grande 15940
▁raid 15941
owing 15942
▁contrary 15943
Earlier 15944
tien 15945
drop 15946
▁angajat 15947
▁procesul 15948
▁focal 15949
▁impart 15950
▁Abschluss 15951
carui 15952
insul 15953
▁creamy 15954
eille 15955
suppl 15956
▁Heaven 15957
éna 15958
▁swap 15959
▁vreau 15960
▁Bryan 15961
▁Zug 15962
▁glance 15963
▁elimin 15964
▁yeux 15965
wehr 15966
2.5 15967
▁poses 15968
▁parcel 15969
▁Apartment 15970
▁NASA 15971
▁bénéfici 15972
▁Umgebung 15973
asia 15974
abi 15975
coup 15976
synchron 15977
▁Sicherheits 15978
bic 15979
▁distract 15980
▁rentals 15981
constru 15982
curs 15983
genannten 15984
▁Shanghai 15985
▁vague 15986
▁Leather 15987
▁Vintage 15988
pointing 15989
avant 15990
gues 15991
sweise 15992
▁Greater 15993
fig 15994
▁Blut 15995
▁Stellen 15996
▁isolation 15997
▁overhead 15998
▁wondered 15999
essai 16000
aves 16001
▁Shore 16002
▁INC 16003
rufen 16004
▁magnifique 16005
▁intéressant 16006
▁tanks 16007
▁Tun 16008
▁approaching 16009
▁relay 16010
▁Küche 16011
describing 16012
▁Certification 16013
▁Breakfast 16014
▁Frame 16015
▁Stoff 16016
▁victime 16017
Observ 16018
▁gutter 16019
standard 16020
▁Sci 16021
▁sept 16022
▁Potter 16023
letter 16024
▁tobacco 16025
▁threatened 16026
MW 16027
▁Cher 16028
0.1 16029
mitted 16030
zustellen 16031
dominated 16032
/16 16033
POS 16034
▁Zin 16035
▁Okay 16036
▁projected 16037
▁selber 16038
▁proiectului 16039
▁Shell 16040
▁cartridge 16041
Message 16042
haben 16043
▁slides 16044
▁gleichzeitig 16045
▁Racing 16046
▁20, 16047
▁separat 16048
▁repeatedly 16049
▁casting 16050
▁sacred 16051
[...]
